<pad>	0
<unk>	0
<bos>	0
<eos>	0
,	-3.12506
.	-3.6313
▁và	-4.5165
▁của	-4.71738
▁có	-4.7563
▁các	-4.82738
▁cho	-5.07225
▁đã	-5.08469
▁được	-5.11698
▁là	-5.12322
▁trong	-5.12435
▁với	-5.14315
▁người	-5.28249
▁công	-5.37229
▁không	-5.41189
▁động	-5.5049
▁tại	-5.51204
▁để	-5.581
▁một	-5.6019
▁	-5.60364
▁đến	-5.64928
▁(	-5.65069
▁-	-5.67109
▁về	-5.69434
▁ở	-5.70404
▁ngày	-5.71213
▁đồng	-5.7173
▁từ	-5.73998
▁khi	-5.76576
▁việc	-5.77036
▁trên	-5.77635
▁đó	-5.79686
▁hiện	-5.80347
▁ra	-5.80976
▁này	-5.81492
▁vào	-5.82881
▁những	-5.84636
▁năm	-5.85804
▁định	-5.86357
▁số	-5.86951
▁thể	-5.88074
▁sẽ	-5.89467
▁bị	-5.90207
▁Nam	-5.90774
▁nhân	-5.91204
▁quan	-5.9863
)	-6.00275
▁viên	-6.0282
▁đầu	-6.04493
▁tỉnh	-6.04584
▁nhiều	-6.05362
▁làm	-6.05561
:	-6.05947
▁Công	-6.06216
▁thành	-6.07272
▁Việt	-6.08188
▁chức	-6.08305
▁nhà	-6.10773
▁cơ	-6.10967
▁gia	-6.11607
▁hợp	-6.12657
▁cũng	-6.12963
▁thông	-6.13378
▁thời	-6.13453
▁sự	-6.14722
▁trường	-6.1546
▁học	-6.17186
▁điều	-6.2157
▁ông	-6.22724
▁hành	-6.24428
▁vụ	-6.24531
▁theo	-6.24951
▁đoàn	-6.25098
▁lại	-6.25138
▁“	-6.26502
▁dịch	-6.26729
▁nước	-6.2749
▁thực	-6.27891
▁hàng	-6.2963
;	-6.29751
▁chỉ	-6.29824
▁nhất	-6.30349
▁đang	-6.30571
▁tế	-6.31789
▁đối	-6.32402
▁nhận	-6.33268
▁như	-6.33553
▁tiếp	-6.34012
▁"	-6.34029
▁dân	-6.34175
▁cấp	-6.34229
▁hội	-6.34317
▁sinh	-6.3455
▁2	-6.34905
▁chính	-6.36356
▁sau	-6.36813
▁biết	-6.37082
▁phải	-6.37562
▁giá	-6.38867
▁hơn	-6.40234
▁bệnh	-6.41082
▁điểm	-6.41329
▁phát	-6.41658
▁an	-6.42677
▁cao	-6.4539
▁tin	-6.45773
▁độ	-6.47877
▁Hà	-6.48328
▁xã	-6.48848
▁qua	-6.50498
▁dụng	-6.50674
▁bộ	-6.50845
▁trình	-6.51321
▁lý	-6.51461
▁xe	-6.52042
▁nghiệp	-6.52909
▁kết	-6.55378
▁Quốc	-6.5559
▁trước	-6.55659
▁báo	-6.55914
▁phòng	-6.57082
▁tổ	-6.58014
▁do	-6.5834
▁cầu	-6.5855
▁lao	-6.58982
▁đi	-6.58993
▁1	-6.59952
▁tác	-6.60466
▁Bộ	-6.60531
▁lượng	-6.60746
▁Theo	-6.62497
▁cùng	-6.63393
▁mới	-6.63534
▁còn	-6.63725
▁tăng	-6.63794
▁thi	-6.6417
▁địa	-6.64878
-	-6.64918
▁dự	-6.66055
▁Trung	-6.66412
▁xuất	-6.67075
▁bảo	-6.67132
▁quy	-6.6759
▁hình	-6.6889
▁toàn	-6.68937
▁Nội	-6.69156
▁tiền	-6.6943
▁khu	-6.6945
▁án	-6.69494
▁sản	-6.69523
▁tháng	-6.69755
▁năng	-6.71832
▁nhưng	-6.72205
▁đường	-6.72459
▁tra	-6.73001
▁giải	-6.73158
▁cách	-6.73468
▁lực	-6.73568
▁giao	-6.73649
▁3	-6.73988
▁vị	-6.74769
▁đội	-6.75782
▁huyện	-6.75978
▁đề	-6.76105
▁lên	-6.77266
▁Nguyễn	-6.77414
▁COVID	-6.77606
▁nay	-6.77632
▁phương	-6.78478
▁đạo	-6.79181
”	-6.80181
▁tình	-6.8107
▁cả	-6.82672
/	-6.82876
▁tâm	-6.83308
▁tục	-6.83451
▁Trong	-6.83499
▁thủ	-6.83719
▁tư	-6.83993
▁gian	-6.84108
▁triệu	-6.84548
▁đấu	-6.85374
▁thì	-6.85745
▁quả	-6.86206
"	-6.86464
▁doanh	-6.86904
▁chủ	-6.86986
▁rất	-6.87272
▁pháp	-6.87434
▁Văn	-6.87727
▁nên	-6.88008
▁hoạt	-6.88325
▁tập	-6.88692
▁tới	-6.89021
▁liên	-6.89461
▁đây	-6.89583
▁trợ	-6.90193
▁triển	-6.90314
▁con	-6.90346
▁ty	-6.90609
▁quyết	-6.9189
▁tôi	-6.92057
h	-6.93841
▁kinh	-6.94101
▁sử	-6.94137
▁phố	-6.94483
▁thế	-6.94681
▁vẫn	-6.95834
▁tài	-6.95949
▁Bình	-6.96039
▁sở	-6.96169
▁bàn	-6.97035
▁thị	-6.98517
▁đơn	-6.99544
...	-6.99704
▁khác	-7.00528
▁mạnh	-7.00543
▁trận	-7.00852
▁cuộc	-7.01104
▁khai	-7.01404
▁tịch	-7.01729
▁đại	-7.0199
▁mà	-7.02321
▁mức	-7.02638
▁vực	-7.0286
▁giảm	-7.03044
▁quốc	-7.0366
▁nói	-7.03862
▁Chủ	-7.04177
ng	-7.0475
▁phần	-7.05297
▁nhiên	-7.06249
▁trị	-7.06393
▁trở	-7.06506
▁kiểm	-7.06762
▁ý	-7.06789
▁nhiệm	-7.06981
▁tham	-7.07066
▁thống	-7.07291
▁vì	-7.07338
▁thu	-7.08052
▁lần	-7.08348
▁diễn	-7.08442
▁lớn	-7.08961
▁tính	-7.09327
▁tạo	-7.09404
▁chuyển	-7.09996
▁cần	-7.10771
▁khoảng	-7.10815
▁Mỹ	-7.10826
▁bán	-7.10961
▁rằng	-7.11082
▁khách	-7.11511
▁trung	-7.11614
▁chưa	-7.11809
▁mặt	-7.1184
▁TP	-7.1229
▁đất	-7.1247
▁bản	-7.12596
▁thức	-7.12636
▁tượng	-7.12859
▁vi	-7.12955
▁tự	-7.13015
▁tuổi	-7.13428
▁khó	-7.13704
▁chất	-7.13756
▁anh	-7.14272
▁đưa	-7.14306
▁chống	-7.15737
▁giới	-7.16118
-19	-7.16275
▁trọng	-7.16561
▁thương	-7.16623
▁ảnh	-7.16768
▁tỉ	-7.17053
▁tiêu	-7.17565
▁4	-7.18008
▁thường	-7.18315
▁hiệu	-7.18418
▁cáo	-7.18478
▁nghị	-7.18618
▁bằng	-7.18688
▁sát	-7.18997
▁tuyển	-7.19873
▁gần	-7.19885
▁Tổng	-7.20461
▁thứ	-7.20489
▁vừa	-7.20817
▁ban	-7.21349
▁viện	-7.21412
▁kiến	-7.21454
▁UBND	-7.21989
▁dựng	-7.22748
▁hỗ	-7.22954
▁đổi	-7.23241
▁5	-7.23333
▁phạm	-7.23514
▁cảnh	-7.237
▁quyền	-7.23711
▁hoặc	-7.23954
▁tích	-7.24203
▁Anh	-7.24263
▁yêu	-7.2429
▁sĩ	-7.24653
▁trưởng	-7.24806
▁tốt	-7.2489
▁đình	-7.24971
▁–	-7.24976
▁hai	-7.25372
▁trực	-7.25885
▁xử	-7.2625
▁hoàn	-7.26451
▁hưởng	-7.26756
▁điện	-7.2698
▁nơi	-7.27068
▁bóng	-7.27276
▁sáng	-7.27496
▁xét	-7.27562
▁ca	-7.27855
▁luật	-7.28233
▁mình	-7.28236
▁giúp	-7.28326
▁dẫn	-7.28801
▁kỳ	-7.29625
▁quá	-7.29758
▁hệ	-7.30109
▁Thanh	-7.30229
▁gây	-7.30451
▁bạn	-7.30611
▁chế	-7.31305
▁loại	-7.32061
▁bắt	-7.32306
▁cứu	-7.32638
▁xây	-7.32803
▁vệ	-7.33052
▁biệt	-7.3404
▁sức	-7.34338
▁thêm	-7.34374
▁xác	-7.34886
▁ứng	-7.34916
▁Tuy	-7.34995
▁Ngày	-7.3529
▁khiến	-7.35292
▁thấy	-7.35683
▁Lao	-7.35823
▁bố	-7.36111
▁hay	-7.36336
▁diện	-7.36602
m	-7.36661
▁Ban	-7.36679
▁mua	-7.37417
▁Sau	-7.37823
▁hộ	-7.38011
).	-7.38059
▁vấn	-7.3814
▁văn	-7.38421
▁đánh	-7.3897
▁hóa	-7.39628
▁máy	-7.39935
▁bất	-7.40267
▁chúng	-7.40299
),	-7.4039
▁giáo	-7.40483
▁C	-7.40525
▁An	-7.40718
▁phẩm	-7.40809
▁mưa	-7.41442
▁chiến	-7.41465
▁lập	-7.42612
▁thuộc	-7.42894
▁hướng	-7.43715
▁đảm	-7.43722
▁chứng	-7.4399
▁y	-7.44291
▁bà	-7.44355
▁6	-7.44861
▁giữ	-7.44972
▁10	-7.45191
▁ngành	-7.4525
▁Đại	-7.46043
▁nghiệm	-7.46502
▁ăn	-7.46646
▁Hải	-7.46681
▁phục	-7.47143
▁Các	-7.47395
▁xảy	-7.47603
▁Bắc	-7.47651
▁biến	-7.47904
▁tổng	-7.48075
▁truyền	-7.48416
▁nữ	-7.49087
▁Phó	-7.49374
▁thiết	-7.49443
▁chi	-7.49597
▁Chính	-7.49925
▁đều	-7.49955
▁khăn	-7.50052
▁vàng	-7.50113
▁Sở	-7.50165
▁lợi	-7.50492
▁sách	-7.50665
▁phí	-7.51005
▁trí	-7.51022
▁sống	-7.51234
▁Thị	-7.51263
▁nhập	-7.51564
▁chí	-7.51754
▁giờ	-7.52119
▁chuyên	-7.52161
▁em	-7.52261
▁Quảng	-7.52531
▁cá	-7.52565
▁hạn	-7.5265
▁chia	-7.52823
▁kiện	-7.53366
▁vùng	-7.53799
▁lời	-7.54127
▁ngoài	-7.54129
▁tiến	-7.54147
▁nào	-7.54858
▁biểu	-7.54936
▁tiên	-7.54991
▁họ	-7.55017
▁ký	-7.55866
▁đặc	-7.55909
▁Trước	-7.55926
▁vận	-7.56176
▁hiểm	-7.56898
▁sân	-7.56932
▁giữa	-7.5756
▁TPHCM	-7.57849
▁quản	-7.58037
▁tử	-7.58399
▁đá	-7.58401
▁đủ	-7.58942
▁bình	-7.59
▁trang	-7.59223
▁lịch	-7.59401
▁USD	-7.59451
▁Sơn	-7.59955
▁phủ	-7.60159
▁trẻ	-7.60333
▁đạt	-7.60588
▁nạn	-7.60784
▁Liên	-7.60914
▁chung	-7.61089
▁so	-7.6125
▁Y	-7.61295
▁vậy	-7.6134
▁chiều	-7.62736
▁Minh	-7.62916
▁Đồng	-7.62945
▁Thành	-7.63213
▁hoạch	-7.64962
▁phụ	-7.65416
▁kế	-7.65586
▁Ông	-7.65685
▁cán	-7.66108
▁vòng	-7.66458
▁mang	-7.66477
▁Thủ	-7.66844
▁nội	-7.66876
▁phối	-7.67032
▁Dương	-7.67182
▁nguyên	-7.67226
▁đóng	-7.67849
▁tiết	-7.67891
▁ghi	-7.68163
▁chương	-7.68215
▁trả	-7.68432
▁lãnh	-7.68695
▁gặp	-7.69066
▁Thái	-7.69179
▁tìm	-7.69201
▁tuyến	-7.69496
▁Đức	-7.69614
▁danh	-7.69712
▁quân	-7.70314
▁sẻ	-7.70414
▁rõ	-7.70551
▁gồm	-7.70579
n	-7.70742
▁bên	-7.71215
▁phía	-7.71383
▁tay	-7.71716
▁từng	-7.71827
▁khả	-7.71965
▁thắng	-7.72208
".	-7.72364
▁nếu	-7.72439
▁U	-7.72708
▁quận	-7.72799
▁cô	-7.7309
▁cuối	-7.73607
▁cảm	-7.73674
▁áp	-7.73713
▁đốc	-7.73798
▁chuẩn	-7.73891
▁Tại	-7.74024
▁bay	-7.74643
▁trạng	-7.75162
▁vật	-7.75205
▁dục	-7.75584
▁hết	-7.75919
▁muốn	-7.76168
▁phép	-7.76415
▁Trường	-7.76649
▁thay	-7.76725
”.	-7.77268
▁đoạn	-7.77572
▁tuần	-7.7771
▁Châu	-7.78104
▁soát	-7.78215
▁Đông	-7.78465
▁ly	-7.78562
▁nghệ	-7.78578
▁khẩu	-7.78798
▁đăng	-7.79083
▁góp	-7.79155
▁nhóm	-7.79249
▁tướng	-7.79838
▁cổ	-7.79842
▁trao	-7.79942
▁Điều	-7.80165
▁nguồn	-7.80742
▁Hội	-7.80967
▁mỗi	-7.8127
▁dài	-7.81343
▁tối	-7.8146
▁Hoàng	-7.81727
▁thân	-7.8217
▁tải	-7.82211
▁7	-7.82415
▁thấp	-7.82546
▁nhanh	-7.83151
▁liệu	-7.83429
▁nghỉ	-7.83619
▁Phòng	-7.83719
▁bỏ	-7.83863
▁thanh	-7.83919
▁biển	-7.84154
▁chị	-7.84327
▁mục	-7.84715
▁Ninh	-7.84762
▁Giang	-7.84819
▁hôm	-7.84894
▁nhau	-7.85078
▁tên	-7.8511
▁tố	-7.85591
▁gửi	-7.85646
▁sơ	-7.85748
▁Nhà	-7.86038
▁ngay	-7.86422
▁LĐLĐ	-7.86449
▁dùng	-7.86535
▁mạng	-7.86561
▁xem	-7.86819
▁thư	-7.88239
▁Trần	-7.88244
▁luyện	-7.88338
▁mở	-7.88357
▁nguy	-7.88954
▁mất	-7.89437
▁lưu	-7.89446
▁phiên	-7.89668
▁lúc	-7.89848
▁bao	-7.90487
▁Lê	-7.91009
▁mắc	-7.91183
▁Động	-7.91369
▁Bệnh	-7.91479
▁phân	-7.91934
▁trú	-7.9197
▁cửa	-7.92492
▁đúng	-7.92622
▁Long	-7.92761
▁trách	-7.92828
▁Nga	-7.9296
▁môn	-7.9333
▁giả	-7.93345
▁thuật	-7.94427
▁cố	-7.94928
▁dung	-7.9508
▁đặt	-7.95368
▁lương	-7.95478
▁trái	-7.9574
▁phạt	-7.95959
▁hồ	-7.9616
▁8	-7.96231
▁chọn	-7.96461
▁Xuân	-7.96523
▁Tết	-7.96625
▁phường	-7.96736
▁cộng	-7.96761
▁khoản	-7.96806
▁nhằm	-7.97145
▁cung	-7.97206
▁tạm	-7.97352
▁luận	-7.97431
▁minh	-7.97788
▁khí	-7.97873
▁sao	-7.97913
▁Ngoài	-7.97996
▁9	-7.98184
▁yếu	-7.98337
▁Hòa	-7.98474
c	-7.98533
▁tinh	-7.98877
▁du	-7.99239
▁tàu	-7.9937
▁mọi	-7.99504
▁hồi	-7.99873
▁Tây	-7.9993
▁Đây	-8.00083
▁nhiễm	-8.00344
▁phong	-8.00502
▁câu	-8.0059
▁xuống	-8.00628
▁khoa	-8.00651
▁tất	-8.00652
▁nghiêm	-8.00862
▁tai	-8.01174
▁cạnh	-8.01549
▁đông	-8.0171
▁Nẵng	-8.01749
▁Hiện	-8.018
▁vaccine	-8.02037
▁nam	-8.02115
▁Đà	-8.02477
▁12	-8.02598
▁tiếng	-8.02744
▁tương	-8.02773
▁khỏe	-8.02806
▁hỏi	-8.03006
▁tuyên	-8.03265
▁Giám	-8.03669
▁mùa	-8.0438
▁Đảng	-8.04382
▁bởi	-8.04821
▁cử	-8.0504
▁tranh	-8.0504
▁Lan	-8.05058
▁kể	-8.05213
▁ít	-8.05319
▁hậu	-8.05325
▁vô	-8.05492
▁chơi	-8.05586
▁dưới	-8.05588
▁Một	-8.05635
▁tiêm	-8.0573
u	-8.05859
▁suất	-8.06137
▁lấy	-8.06475
▁di	-8.07524
▁dù	-8.07888
▁Phú	-8.07988
▁lo	-8.08712
▁sang	-8.09371
▁ủy	-8.0941
▁hại	-8.09464
▁lễ	-8.09784
▁mẹ	-8.09917
▁cực	-8.09955
▁lớp	-8.09971
▁bảng	-8.10398
▁ta	-8.10454
▁tiện	-8.10663
▁gọi	-8.10871
▁đáng	-8.11728
▁Từ	-8.11813
▁ngân	-8.1247
▁T	-8.12922
▁ương	-8.12994
▁huấn	-8.13055
▁vọng	-8.13074
▁Nguyên	-8.13239
▁nâng	-8.1337
▁Luật	-8.13693
▁20	-8.14057
▁nhỏ	-8.14162
▁phản	-8.14324
▁bổ	-8.1461
▁gì	-8.14728
▁bài	-8.14975
▁đêm	-8.14998
▁trò	-8.1507
▁Khi	-8.15253
▁khởi	-8.1551
▁thần	-8.16007
▁sớm	-8.16308
▁cư	-8.16391
▁giám	-8.16685
▁vượt	-8.17233
▁vốn	-8.18007
▁đẩy	-8.18131
▁rộng	-8.18665
▁xúc	-8.18707
▁họp	-8.18736
▁Tân	-8.18834
▁luôn	-8.19085
▁căn	-8.19154
▁Cup	-8.19462
▁Với	-8.19558
▁buổi	-8.19697
▁riêng	-8.20174
▁thuận	-8.20274
▁phút	-8.20873
▁khỏi	-8.21168
▁nặng	-8.21342
i	-8.21409
▁tấn	-8.21991
▁cường	-8.22227
▁giấy	-8.22299
▁chiếc	-8.22544
▁Ngọc	-8.22759
▁sắc	-8.22832
▁rồi	-8.22915
▁biện	-8.22968
▁Quang	-8.23138
▁kỷ	-8.23197
▁thiện	-8.23589
▁chấp	-8.23785
▁mẫu	-8.24531
▁hạng	-8.24589
▁Ủy	-8.2461
▁Bảo	-8.24757
▁Dự	-8.24952
▁Phạm	-8.2523
▁lệ	-8.25269
",	-8.25323
▁lộ	-8.25346
▁tặng	-8.25789
23	-8.25847
▁tội	-8.2589
▁cây	-8.26431
▁phim	-8.26936
▁Yên	-8.26954
▁chăm	-8.2708
▁cứ	-8.27241
▁Hồ	-8.27283
▁15	-8.27291
▁thí	-8.27517
▁phiếu	-8.27643
▁vong	-8.27874
▁đa	-8.28414
▁nữa	-8.28517
▁nghĩa	-8.28799
▁B	-8.29195
▁thăm	-8.29372
▁huy	-8.29511
▁đời	-8.30018
▁đầy	-8.30098
▁thúc	-8.30273
▁lòng	-8.30494
?	-8.30708
▁Thông	-8.30833
▁hữu	-8.31175
▁kỹ	-8.31208
▁đẹp	-8.3121
T	-8.31403
▁A	-8.31537
▁Á	-8.31581
▁Nhật	-8.31773
”,	-8.31776
▁Nhữ	-8.32137
▁Nếu	-8.32189
▁lượt	-8.32288
▁Chỉ	-8.32551
▁đô	-8.32729
▁cụ	-8.32748
▁thích	-8.32902
▁khám	-8.3293
t	-8.33272
▁nghiên	-8.33382
▁bác	-8.33584
▁Nhiệt	-8.33618
▁30	-8.33751
▁Báo	-8.33984
▁Người	-8.34208
▁kéo	-8.34272
▁vài	-8.34334
▁xin	-8.34437
▁thuốc	-8.34732
▁bão	-8.34797
▁kịp	-8.34846
▁mong	-8.35014
▁Hàn	-8.35198
▁đảo	-8.35345
▁trì	-8.35351
▁mắt	-8.35697
▁bầu	-8.35813
▁thoại	-8.35831
▁ngoại	-8.35998
▁ngờ	-8.36015
▁Vũ	-8.36484
▁Do	-8.36573
▁nhiệt	-8.3661
▁Cục	-8.36768
s	-8.36855
▁thiếu	-8.36917
▁chữa	-8.37293
▁chuyện	-8.37296
▁H	-8.37829
▁thẩm	-8.38009
▁chân	-8.38522
▁giai	-8.38605
▁Bản	-8.38718
▁dầu	-8.38754
▁đứng	-8.38773
▁Cơ	-8.38957
▁F	-8.39133
▁gió	-8.3942
▁quà	-8.39696
▁V	-8.39764
a	-8.40016
▁hoa	-8.40115
▁chạy	-8.40354
▁Kim	-8.4092
▁11	-8.40928
▁Nghị	-8.4097
▁mại	-8.41355
▁ổn	-8.41412
▁xuyên	-8.41444
▁nóng	-8.41511
▁vợ	-8.41606
▁khẳng	-8.41818
▁Việc	-8.42089
▁dưỡng	-8.4221
▁hòa	-8.42242
▁thưởng	-8.42285
▁chồng	-8.42305
▁vai	-8.42546
▁biên	-8.42635
▁toán	-8.4271
▁thất	-8.42802
▁xếp	-8.4292
▁dừng	-8.42944
▁duy	-8.4306
-19.	-8.43502
▁chỉnh	-8.43813
▁cháy	-8.44098
▁bước	-8.44269
▁tốc	-8.44405
▁bé	-8.44459
▁môi	-8.4446
▁phù	-8.4497
▁nổi	-8.45346
▁gái	-8.45367
▁phá	-8.45446
▁Cảnh	-8.45774
▁Đến	-8.45838
▁Hóa	-8.45989
▁dấu	-8.46331
▁chịu	-8.46665
▁dông	-8.46884
▁giành	-8.46905
▁Tổ	-8.47017
▁buộc	-8.47075
▁càng	-8.47169
▁khá	-8.47238
▁nằm	-8.47322
▁CĐ	-8.47501
▁dành	-8.47621
▁đón	-8.47676
▁Không	-8.47742
▁chú	-8.47836
▁sai	-8.48077
▁Giá	-8.48397
▁cháu	-8.48641
▁chết	-8.48969
▁thôn	-8.49212
▁chuyến	-8.49251
▁âm	-8.49252
▁lạc	-8.49501
▁cải	-8.49564
▁dễ	-8.49635
▁Có	-8.49673
▁nông	-8.49693
▁Thường	-8.49715
▁ngôi	-8.49787
▁N	-8.50038
▁máu	-8.50421
▁Nhiều	-8.5047
▁2020	-8.50552
▁Bí	-8.506
▁Bên	-8.50673
▁ủng	-8.50912
▁Hồng	-8.51261
▁sư	-8.51842
▁dương	-8.51845
▁THPT	-8.52054
▁hiểu	-8.52086
▁tỷ	-8.52345
▁tránh	-8.53034
▁nhu	-8.53074
▁Khánh	-8.53099
▁Hoa	-8.53372
▁18	-8.53754
▁Gia	-8.54073
▁mô	-8.54116
▁Cụ	-8.54381
▁niên	-8.54663
▁lái	-8.54769
▁khán	-8.54934
▁nghề	-8.54988
▁độc	-8.55106
▁dịp	-8.55432
▁đồ	-8.55667
▁lĩnh	-8.55727
▁đáp	-8.55798
▁sung	-8.56269
▁nhạc	-8.56282
▁TNHH	-8.56617
▁Park	-8.56781
▁ma	-8.57043
▁Tiến	-8.57235
▁Trưởng	-8.58048
▁Bà	-8.58081
▁Phát	-8.58553
▁Tuấn	-8.59018
▁ôtô	-8.59267
▁Chí	-8.59335
▁cái	-8.59415
▁trời	-8.59443
▁Đình	-8.59613
▁Giáo	-8.59871
▁đua	-8.59892
▁đợt	-8.60204
▁Phương	-8.60322
▁hạ	-8.60391
▁ưu	-8.60613
▁thiệt	-8.60695
▁nắng	-8.60699
▁16	-8.60703
▁Cty	-8.60942
▁vé	-8.61119
▁đàn	-8.61194
▁sông	-8.61218
▁Khu	-8.61268
▁đào	-8.61331
▁nền	-8.61363
▁da	-8.61471
▁chỗ	-8.61744
▁vũ	-8.61771
▁màu	-8.62117
▁Tài	-8.62195
▁uống	-8.62281
▁quý	-8.62317
▁BHXH	-8.62386
▁nghi	-8.62405
▁chiếm	-8.62525
1	-8.62605
▁Để	-8.62605
▁sâu	-8.62638
▁Phúc	-8.62743
▁trụ	-8.63169
▁chóng	-8.63206
▁miền	-8.63264
▁Lâm	-8.63383
▁miễn	-8.64081
▁thuế	-8.64479
▁Đoàn	-8.64564
▁kiếm	-8.64734
▁ninh	-8.65088
▁14	-8.65179
▁phóng	-8.65371
▁Đối	-8.65412
▁Ngân	-8.65414
▁Thương	-8.65423
▁Linh	-8.65937
▁vui	-8.65992
▁ai	-8.66375
▁nhẹ	-8.66446
▁đôi	-8.66456
▁Tiên	-8.665
▁quán	-8.66512
▁t	-8.6653
▁thuê	-8.66682
▁lan	-8.66777
▁thao	-8.6685
▁áo	-8.66927
▁K	-8.67122
▁dõi	-8.67312
▁tưởng	-8.67326
▁địch	-8.67332
▁cục	-8.67435
▁Như	-8.67507
▁ngăn	-8.67523
▁Điện	-8.67598
▁Mai	-8.67902
▁khắc	-8.68114
▁Kỳ	-8.68404
▁tín	-8.68408
▁tầng	-8.68412
▁100	-8.68667
▁Nhân	-8.69147
▁ích	-8.69266
▁thảo	-8.69331
▁Tôi	-8.69429
▁giật	-8.69435
▁M	-8.69482
▁Vì	-8.69832
▁nêu	-8.69838
▁truy	-8.69869
▁HLV	-8.69899
▁tờ	-8.70004
▁D	-8.70387
▁phê	-8.70396
▁lâu	-8.70554
▁lửa	-8.70638
▁chứa	-8.70671
▁nuôi	-8.70807
▁2021	-8.70888
▁24	-8.70902
▁Sáng	-8.71235
▁nó	-8.7126
2	-8.71399
▁đỏ	-8.71405
▁Vĩnh	-8.71444
▁nguyện	-8.71495
▁tỏ	-8.71517
▁cân	-8.71573
A	-8.71666
▁tức	-8.71685
▁Nghệ	-8.71918
▁loạt	-8.72223
▁nhấn	-8.72473
▁League	-8.72588
▁thầy	-8.72619
▁bày	-8.7274
▁Hưng	-8.72839
▁sàng	-8.73146
▁thật	-8.73266
▁Biên	-8.73396
▁nỗ	-8.7342
▁Dũng	-8.7343
▁ánh	-8.73434
▁xanh	-8.73503
▁xa	-8.73637
▁Về	-8.73655
▁World	-8.73668
▁lây	-8.73701
▁ba	-8.73787
▁khẩn	-8.73883
▁13	-8.73895
▁tạp	-8.73942
▁Trump	-8.73999
▁khối	-8.74075
▁to	-8.74463
▁chờ	-8.74496
lượng	-8.74641
▁rác	-8.74709
▁Năm	-8.74756
▁đau	-8.74829
▁phổ	-8.74961
30	-8.75022
▁lũ	-8.75039
▁cập	-8.7515
▁trương	-8.75704
▁S	-8.7571
▁rào	-8.7595
▁thái	-8.76284
▁hút	-8.76561
▁19	-8.77369
▁tiểu	-8.77431
▁lựa	-8.77696
▁Thời	-8.77724
▁Chương	-8.78073
▁Thuận	-8.7845
▁nhìn	-8.78547
▁Ba	-8.78558
C	-8.78612
▁binh	-8.79041
▁can	-8.79118
▁Định	-8.79238
▁túy	-8.79436
▁nối	-8.79562
▁2018	-8.79606
▁Chiều	-8.79762
▁Tỉnh	-8.79803
▁trai	-8.79929
▁Đào	-8.80411
▁Tĩnh	-8.80721
▁thua	-8.80783
▁Hùng	-8.80908
▁Ngoại	-8.80933
00	-8.8114
▁quay	-8.8124
▁thử	-8.81657
▁sửa	-8.81787
▁mối	-8.81811
▁nợ	-8.82031
km	-8.82284
▁Tập	-8.82435
▁Thế	-8.82513
▁quê	-8.82585
▁Được	-8.82661
▁gắn	-8.82764
▁nhánh	-8.82808
▁Quyết	-8.82814
▁17	-8.82981
▁nghìn	-8.83175
▁mộ	-8.83231
▁50	-8.83248
▁Nhưng	-8.83541
▁2019	-8.83618
▁ô	-8.83848
▁Chi	-8.83902
▁sẵn	-8.84583
▁tái	-8.84694
▁Lai	-8.84903
▁Ngay	-8.85201
▁cận	-8.85298
▁đổ	-8.85447
SN	-8.86056
▁nghèo	-8.86134
▁khảo	-8.86706
▁thiên	-8.86873
▁sóng	-8.86897
▁chốt	-8.86908
▁Đặ	-8.87424
▁quanh	-8.87474
▁Đội	-8.8785
▁thác	-8.87981
▁rút	-8.88084
▁ấy	-8.88107
▁bức	-8.88384
▁thẻ	-8.8844
▁vay	-8.88557
▁Đắk	-8.88708
▁L	-8.88789
▁tòa	-8.88812
▁P	-8.88951
▁bạc	-8.88965
B	-8.88981
▁La	-8.89198
▁nghĩ	-8.89339
▁tắc	-8.89363
▁Quản	-8.89879
▁nộp	-8.89899
▁viết	-8.89925
▁Độ	-8.90372
▁G	-8.90539
▁kích	-8.90665
▁sắp	-8.90722
▁sóc	-8.90756
▁thẳng	-8.90792
▁Quỹ	-8.90801
▁thủy	-8.91096
▁chắc	-8.91344
▁Man	-8.9142
▁dây	-8.91466
▁phức	-8.91648
▁dạy	-8.9188
▁mã	-8.9211
▁virus	-8.92204
▁chở	-8.92259
▁lệnh	-8.92293
▁hạt	-8.92393
yến	-8.92466
▁xế	-8.92531
▁lạnh	-8.92568
▁thỏa	-8.92732
▁Triều	-8.92798
▁nắm	-8.92881
▁lãi	-8.93234
▁chặt	-8.93275
▁Thu	-8.93336
▁NLĐ	-8.93584
▁may	-8.9371
▁suy	-8.9406
▁Nha	-8.94062
▁xăng	-8.94345
▁rừng	-8.9438
▁Viện	-8.94538
▁chợ	-8.94575
▁Donald	-8.94846
▁Kiểm	-8.94866
▁đột	-8.95105
▁chủng	-8.95122
▁khóa	-8.95242
▁mừng	-8.9544
▁21	-8.95503
▁Pháp	-8.95707
▁Bùi	-8.95849
▁cơn	-8.95903
-19,	-8.9596
▁Hoàn	-8.96004
▁dữ	-8.96111
▁dòng	-8.96158
▁mây	-8.96212
▁thừa	-8.96212
▁vững	-8.96402
▁Vụ	-8.96946
▁hưu	-8.97234
▁Kinh	-8.97433
▁trấn	-8.97696
▁niệm	-8.97723
▁bắc	-8.97909
▁phúc	-8.98109
▁Thơ	-8.98166
▁thụ	-8.98312
▁Số	-8.98553
▁GDĐT	-8.98833
▁trào	-8.98927
▁bại	-8.99012
▁Phong	-8.99097
▁sắt	-8.99129
▁núi	-8.99175
▁ước	-8.99213
▁sạch	-8.99214
▁Phan	-8.99365
▁Giao	-8.99791
▁khoán	-8.99815
▁nghe	-8.99994
▁Thiên	-9.00315
▁khiển	-9.00368
▁Trị	-9.00564
▁cam	-9.00625
▁kê	-9.00666
▁cắt	-9.00878
▁dứt	-9.01059
▁Hiệp	-9.01391
▁Duy	-9.01559
▁ấn	-9.01662
▁thải	-9.01708
);	-9.01939
g	-9.01966
▁Hàng	-9.02367
▁đích	-9.02473
▁dư	-9.02736
▁Hương	-9.02784
▁Hậu	-9.03013
▁Hai	-9.03029
▁Kết	-9.03122
▁trải	-9.03247
▁Quân	-9.03522
▁Dù	-9.03567
▁chặn	-9.03709
▁bối	-9.04082
▁cấm	-9.0413
▁Lý	-9.04179
hậm	-9.04234
▁Thủy	-9.04332
▁23	-9.04412
▁lỗi	-9.04453
▁rơi	-9.04472
▁VN	-9.04571
▁SARS	-9.04602
▁nhờ	-9.04606
▁Huế	-9.04615
H	-9.04728
▁niêm	-9.04776
▁lục	-9.05054
▁nổ	-9.05083
▁huynh	-9.05091
▁Qua	-9.05138
▁Hang	-9.05462
CoV	-9.05471
▁chấn	-9.05915
▁chấm	-9.05995
▁Cũ	-9.06164
▁phó	-9.06443
▁đương	-9.06476
Hà	-9.06789
▁Khoa	-9.0733
▁Tư	-9.07378
▁màn	-9.07441
▁hôn	-9.07569
o	-9.07734
League	-9.07795
0	-9.07864
▁siêu	-9.08126
▁Trang	-9.08255
▁nhật	-9.08505
▁hấp	-9.08761
▁tim	-9.08801
▁cầm	-9.08953
Tôi	-9.09075
▁tầm	-9.09478
▁chạm	-9.09516
▁kêu	-9.09639
▁Nông	-9.09732
▁Vân	-9.09897
▁liệt	-9.09912
▁nhắc	-9.09912
▁bật	-9.09949
▁cũ	-9.10008
▁phận	-9.10079
▁giống	-9.10187
▁cánh	-9.10325
▁gốc	-9.10467
▁tỏa	-9.105
▁Còn	-9.10634
▁25	-9.1078
▁Vinh	-9.10933
▁22	-9.11287
▁mặc	-9.11469
▁ấm	-9.1167
▁chắn	-9.11702
▁Phước	-9.11798
▁ngại	-9.11798
▁đọc	-9.11875
▁Đa	-9.11896
seo	-9.11931
▁ngắn	-9.11947
▁thai	-9.12223
kg	-9.12325
▁2022	-9.12408
▁pha	-9.12581
▁quen	-9.12687
▁lược	-9.12867
▁Cường	-9.13269
▁gắng	-9.13282
▁dạng	-9.13535
▁rà	-9.13547
▁hâm	-9.13558
▁Huy	-9.13574
▁chậm	-9.13627
▁vết	-9.13645
▁United	-9.1372
▁Chúng	-9.14104
▁hát	-9.14133
▁dần	-9.14307
▁Lào	-9.14316
▁kháng	-9.14388
▁quỹ	-9.14406
▁40	-9.14549
▁Cùng	-9.14683
▁hiệp	-9.14735
▁yết	-9.14869
▁suốt	-9.15107
▁hãng	-9.15162
▁lưới	-9.15228
▁giác	-9.15295
▁Trên	-9.15363
▁Cần	-9.15443
▁bang	-9.15652
▁đoán	-9.15857
▁trồng	-9.16106
▁Tiền	-9.16179
▁Gió	-9.16827
▁Nai	-9.16963
▁Thứ	-9.17314
▁trắng	-9.17325
▁Cao	-9.17627
▁Thắng	-9.1804
▁Thực	-9.18044
y	-9.18135
▁duyệt	-9.18393
▁tệ	-9.18552
L	-9.18591
▁xung	-9.18613
▁bánh	-9.18839
N	-9.18953
▁thịt	-9.19133
▁Hữu	-9.19192
▁liều	-9.19345
▁lai	-9.19391
▁huống	-9.19626
V	-9.19761
K	-9.19845
▁Đó	-9.20142
▁Sự	-9.20151
▁hoá	-9.20171
▁thoát	-9.20495
▁Vàng	-9.20504
▁trăm	-9.20679
▁Lương	-9.20988
▁tận	-9.21028
▁đỡ	-9.21086
▁ngược	-9.21215
22	-9.21285
▁tuy	-9.21321
▁rời	-9.21601
▁coi	-9.21647
▁món	-9.21702
▁mũi	-9.21953
▁liền	-9.2206
▁mời	-9.22111
▁Trọng	-9.2216
▁trạm	-9.22322
▁Lộc	-9.22337
▁ngừng	-9.22536
▁I	-9.22659
▁đỉnh	-9.22678
▁khúc	-9.22698
▁PV	-9.22749
▁lợn	-9.22819
▁khen	-9.22848
▁ngừa	-9.22913
▁sổ	-9.23138
▁60	-9.23243
▁tây	-9.23346
▁ngập	-9.23388
▁tuyệt	-9.23523
▁sứ	-9.23595
G	-9.23741
▁lá	-9.23752
▁bồi	-9.23809
▁Sa	-9.23897
▁quần	-9.23944
▁khổ	-9.24123
▁thiểu	-9.24276
▁ngũ	-9.24348
▁song	-9.24362
▁tù	-9.24495
▁ơn	-9.24519
▁đàm	-9.24679
▁lắng	-9.24711
▁khuẩn	-9.24744
▁đoạt	-9.24941
▁gạo	-9.24986
▁cựu	-9.25059
▁Cầu	-9.25113
▁ngủ	-9.2512
▁gói	-9.25459
▁kênh	-9.25537
▁ngồi	-9.25665
▁mật	-9.25683
▁nhớ	-9.25684
▁phán	-9.25845
S	-9.26387
▁mạch	-9.26542
M	-9.2661
▁trật	-9.26753
▁Thọ	-9.27001
▁hy	-9.27182
▁Xây	-9.27412
▁trữ	-9.2767
▁hài	-9.28064
▁City	-9.28074
▁cha	-9.28108
▁Sài	-9.28241
▁hải	-9.28536
sinh	-9.28539
▁Malaysia	-9.28795
▁tá	-9.2883
▁200	-9.28889
I	-9.28958
▁Indonesia	-9.29084
▁Cổ	-9.2925
▁Gòn	-9.29373
3	-9.2949
▁trúng	-9.29518
▁Xã	-9.29602
▁non	-9.2966
▁tồn	-9.29764
▁Syria	-9.29802
▁Đỗ	-9.29902
▁bào	-9.30075
▁chục	-9.30093
▁hãy	-9.30326
▁chiếu	-9.30363
▁Toàn	-9.30436
▁tấm	-9.30558
▁huyết	-9.30638
▁Đầu	-9.30666
▁kim	-9.30738
▁ẩm	-9.30853
p	-9.31189
▁mai	-9.31247
▁Kiếm	-9.31301
▁CNVCLĐ	-9.31489
▁Và	-9.31653
▁giàu	-9.31654
▁Đ	-9.31742
▁hiến	-9.31928
▁tri	-9.31965
▁gỡ	-9.32066
▁lâm	-9.32419
▁băng	-9.32662
▁tộc	-9.32759
▁Mạnh	-9.33083
▁R	-9.33131
▁Hợp	-9.33172
HCM	-9.33176
▁E	-9.33241
▁b	-9.33487
▁CNLĐ	-9.33714
▁Bạn	-9.33758
▁phi	-9.33799
▁Iran	-9.33939
▁2020.	-9.33972
▁Xem	-9.33981
▁lối	-9.34
▁Vương	-9.34126
▁viêm	-9.3423
▁ngôn	-9.34287
▁trích	-9.34308
▁Giấy	-9.3434
▁Khoản	-9.3446
▁hủy	-9.34566
▁trừ	-9.34717
▁kịch	-9.3487
▁bãi	-9.35111
▁chúc	-9.3519
e	-9.352
▁sàn	-9.35366
▁thầu	-9.35404
▁xấu	-9.35638
▁Tháng	-9.35654
▁Du	-9.3569
▁xu	-9.35763
▁bờ	-9.35865
▁niềm	-9.35971
▁cặp	-9.36155
▁đen	-9.36263
▁Lắk	-9.3631
▁Võ	-9.36386
▁kém	-9.36637
▁tôn	-9.36682
CP	-9.36919
▁hương	-9.37019
5	-9.37192
▁Tuyên	-9.37219
Chúng	-9.37339
▁tật	-9.37348
-2	-9.37355
▁giãn	-9.37407
▁sữa	-9.37568
▁0	-9.3761
▁đe	-9.37951
▁CĐCS	-9.37961
▁mái	-9.38902
▁đám	-9.39003
▁hơi	-9.39161
▁Phượng	-9.3918
▁chứ	-9.39258
▁cấu	-9.39528
▁vẻ	-9.39556
▁sốt	-9.39791
▁thuyền	-9.39997
▁Đường	-9.4019
nh	-9.40427
▁mẽ	-9.40743
▁khủng	-9.41046
▁Thượng	-9.41258
▁Tính	-9.41385
▁hỏng	-9.41469
▁tang	-9.4153
▁hầu	-9.41647
▁2017	-9.41774
▁Phi	-9.41889
▁bùng	-9.4204
▁lốc	-9.42159
▁Họ	-9.42338
▁giam	-9.42351
▁rau	-9.42522
U	-9.42537
▁Trà	-9.42918
▁Quy	-9.42921
▁500	-9.42969
▁thận	-9.42983
▁kính	-9.43076
▁hẹn	-9.43186
19	-9.43202
▁hè	-9.4337
▁2020,	-9.43527
▁trùng	-9.43806
▁chẽ	-9.4399
D	-9.44011
▁thở	-9.44093
▁Ngô	-9.44279
P	-9.44679
▁Chung	-9.44835
▁tô	-9.44864
▁Games	-9.44884
▁thú	-9.44944
▁sạn	-9.45013
▁kèm	-9.45018
▁Đặng	-9.45087
▁Real	-9.45133
▁Mặc	-9.45135
▁chào	-9.4528
▁hạnh	-9.45322
▁Thừa	-9.4544
▁thiệu	-9.45454
▁Mới	-9.45548
▁dao	-9.4558
▁căng	-9.45645
▁thượng	-9.45847
▁ung	-9.46088
▁Vào	-9.46137
▁Tàu	-9.46243
▁29	-9.46301
▁thách	-9.46391
▁đâu	-9.46667
▁Giải	-9.46772
▁đảng	-9.46782
▁cú	-9.46911
▁rửa	-9.4709
▁đới	-9.4712
▁đài	-9.47363
▁đai	-9.47376
▁đẳng	-9.47652
▁Trương	-9.47652
▁The	-9.47919
▁Kiên	-9.48054
▁đợi	-9.4811
l	-9.48248
▁ngưỡng	-9.48477
▁rải	-9.48631
▁Nhất	-9.48696
k	-9.48864
▁SEA	-9.48954
▁Vận	-9.4913
▁đán	-9.49179
huyện	-9.49418
▁lở	-9.49729
▁26	-9.4989
▁vitamin	-9.49979
▁trọ	-9.49981
▁nửa	-9.5043
▁Mặt	-9.5083
▁ngang	-9.51074
▁Truyền	-9.51317
▁Nghĩa	-9.51385
▁LĐLĐVN	-9.5139
▁HĐND	-9.51406
▁Australia	-9.51419
▁quảng	-9.51493
▁STK	-9.51534
20	-9.51596
▁khích	-9.51648
▁dàng	-9.51744
▁Madrid	-9.51896
▁khắp	-9.51961
▁36	-9.52
▁Lễ	-9.52353
▁túc	-9.52493
▁ép	-9.52803
10	-9.52935
▁tụ	-9.52979
▁Bước	-9.5312
▁giản	-9.53131
▁Chelsea	-9.53163
▁dinh	-9.53178
▁Facebook	-9.53179
▁súng	-9.53193
▁lẽ	-9.53288
▁Cô	-9.53291
ha	-9.53355
▁sét	-9.53368
▁28	-9.5338
▁Chiến	-9.53599
▁Champions	-9.53646
▁phấn	-9.53675
▁bữa	-9.53844
▁giảng	-9.53873
▁Trận	-9.53915
▁rét	-9.54145
▁cà	-9.54166
▁100%	-9.54213
▁ĐT	-9.54308
▁Cà	-9.54398
▁lắp	-9.54535
▁Hạ	-9.54634
▁sút	-9.5465
▁dựa	-9.5476
▁Dân	-9.5476
▁Bạch	-9.54971
▁trộm	-9.54996
▁ràng	-9.55025
▁Cách	-9.55081
▁làn	-9.55117
▁mạc	-9.55277
▁ngữ	-9.55551
▁BHYT	-9.55607
▁Tiểu	-9.55772
▁CP	-9.55933
▁xong	-9.5605
▁gấp	-9.56163
▁bậc	-9.56279
▁bắn	-9.56341
▁xứ	-9.56415
▁mưu	-9.56697
▁Cộng	-9.56799
NĐ	-9.57082
▁kiệm	-9.57162
▁35	-9.5717
▁Bằng	-9.57274
▁31	-9.57287
uộc	-9.57292
▁New	-9.57488
mua	-9.57512
▁Học	-9.5758
▁lọc	-9.57705
▁linh	-9.5776
▁Quỳnh	-9.57807
▁tung	-9.57808
▁giỏi	-9.58021
▁tháo	-9.58039
▁mốc	-9.58139
▁27	-9.58246
▁300	-9.58416
▁tươi	-9.58426
▁gương	-9.58443
in	-9.58468
▁trưa	-9.58527
▁Chánh	-9.58732
▁đeo	-9.58864
▁tổn	-9.58933
▁bền	-9.59142
▁DN	-9.59361
▁nhượng	-9.59397
▁phẫu	-9.59397
▁trốn	-9.5956
▁GTVT	-9.59802
▁mầm	-9.59843
▁bến	-9.59882
▁sạt	-9.59964
▁CLB	-9.60025
▁hư	-9.60082
▁va	-9.60689
7	-9.6078
▁sợ	-9.60888
▁ngã	-9.60897
▁vinh	-9.60943
▁Nước	-9.60946
▁ro	-9.61107
▁video	-9.61333
▁Điểm	-9.61367
▁khô	-9.61367
▁1.	-9.61391
▁Tối	-9.6144
▁thập	-9.61455
▁nhắn	-9.61456
▁Kế	-9.61466
▁Bạc	-9.61597
▁90	-9.61644
▁ga	-9.6168
▁vỡ	-9.61903
▁yên	-9.61903
▁Tiếp	-9.61908
▁lẫn	-9.6191
▁Bởi	-9.61982
▁CSGT	-9.61999
▁gỗ	-9.62121
▁01	-9.62167
▁VFF	-9.62355
▁khung	-9.62552
▁2018,	-9.62917
▁2021.	-9.63175
▁tiề	-9.63212
▁Tùng	-9.63396
▁Tâm	-9.6341
▁thôi	-9.63514
▁Huỳnh	-9.63539
▁lô	-9.63541
b	-9.63731
▁Tấm	-9.63856
▁Trao	-9.64018
▁Messi	-9.64024
▁Dầu	-9.64039
▁gà	-9.64051
▁đèn	-9.64268
▁Liverpool	-9.64296
▁xâm	-9.64489
▁ghế	-9.65131
▁rủi	-9.65167
▁Lực	-9.65419
▁2021,	-9.65599
▁lệch	-9.65704
▁Ngãi	-9.65706
▁Hoài	-9.65802
▁2019,	-9.65917
▁tóc	-9.66
▁hỏa	-9.66209
▁cảng	-9.66521
▁Ronaldo	-9.66847
▁dọa	-9.66877
00:	-9.6711
▁Singapore	-9.67796
15	-9.67963
▁Mau	-9.68051
▁Biển	-9.68125
▁Liêu	-9.68178
▁Ma	-9.68224
▁đập	-9.68439
▁Thể	-9.68521
▁Ukraina	-9.6856
▁làng	-9.68572
▁rượu	-9.6859
▁2019.	-9.68614
▁lành	-9.68636
▁Đinh	-9.68722
▁đo	-9.68746
▁Tất	-9.68764
▁kì	-9.6895
▁Phí	-9.68959
▁chữ	-9.68967
▁tán	-9.69074
▁túi	-9.69239
▁chụp	-9.69285
▁tuân	-9.69437
▁đòi	-9.69482
▁Riêng	-9.70032
▁buôn	-9.70038
▁2022.	-9.7015
▁cột	-9.7037
▁Biden	-9.70426
▁ẩn	-9.70507
▁buồn	-9.70509
▁mắn	-9.7074
ounce	-9.70978
▁AFF	-9.71032
▁khuôn	-9.7106
▁email	-9.71483
▁ASEAN	-9.71957
r	-9.72472
▁đậu	-9.72512
4	-9.72653
▁đãi	-9.72675
▁chảy	-9.72728
▁vs	-9.72751
▁béo	-9.73121
▁Đài	-9.73228
▁Cẩm	-9.73243
▁đuổi	-9.73276
▁tiếc	-9.73434
▁rối	-9.73552
▁kho	-9.73628
▁2018.	-9.73734
▁lạ	-9.73756
▁Hằng	-9.73769
▁chuỗi	-9.73769
▁THCS	-9.73805
TP	-9.73822
▁bí	-9.74093
ngày	-9.74114
▁Chấp	-9.74165
▁Hoà	-9.74382
▁ruột	-9.74383
▁xả	-9.74591
▁Cai	-9.74605
▁m	-9.7476
▁Bến	-9.74999
▁tết	-9.75264
▁hào	-9.75267
▁lẻ	-9.75291
▁nhi	-9.75481
▁mềm	-9.75507
▁2-3.	-9.76126
▁phú	-9.76212
người	-9.76516
▁Cả	-9.7673
6	-9.76785
Y	-9.76827
▁lừa	-9.77075
▁70	-9.7727
▁đốt	-9.77274
▁cản	-9.77627
▁Chị	-9.77679
▁Tam	-9.77742
▁45	-9.78061
▁chối	-9.78235
▁X	-9.78331
▁Thống	-9.7836
▁đâm	-9.7838
F	-9.7839
▁Thảo	-9.78712
▁km	-9.78713
▁1.000	-9.78868
▁cướp	-9.79391
▁châu	-9.79525
▁Uỷ	-9.79528
▁hộp	-9.79617
▁vắng	-9.7965
QĐ	-9.79745
TT	-9.79847
▁Philippines	-9.80089
x	-9.80102
▁ngoái	-9.80155
▁Con	-9.80261
▁mùi	-9.80518
▁Q	-9.8072
▁bè	-9.80779
▁Trịnh	-9.80939
d	-9.80961
▁Campuchia	-9.81119
▁ven	-9.81164
▁khoẻ	-9.81278
▁Tình	-9.81417
năm	-9.81492
Hải	-9.81509
▁xương	-9.81577
▁thuyết	-9.81919
▁uy	-9.82004
▁dày	-9.82349
▁2.	-9.82369
▁kẻ	-9.82537
▁bạo	-9.82678
▁triệt	-9.82738
▁Mỗi	-9.82744
▁ngụ	-9.82912
▁não	-9.82958
▁Hãy	-9.82958
▁Quý	-9.83118
▁clip	-9.83171
▁Tấn	-9.83344
▁hằng	-9.8341
▁Dịch	-9.83576
▁cống	-9.8409
R	-9.84131
▁mỹ	-9.84153
▁cuốn	-9.84272
▁loạn	-9.84289
Index	-9.84399
▁loài	-9.84812
▁hứa	-9.84901
▁Tỷ	-9.84903
▁Lưu	-9.84934
giờ	-9.85042
et	-9.85118
▁Premier	-9.85188
▁TS	-9.85221
▁Hơn	-9.85332
▁tảng	-9.85413
▁hoãn	-9.85499
▁Lúc	-9.85674
▁Cho	-9.85732
▁Lãnh	-9.86021
un	-9.86027
mm	-9.86049
▁hô	-9.86151
▁trưng	-9.86168
▁nhuận	-9.86257
▁cưới	-9.86259
TS	-9.86279
▁bốc	-9.86289
▁dắt	-9.86348
▁đỗ	-9.86471
▁chút	-9.86555
▁32	-9.86599
▁thang	-9.86669
▁giết	-9.86718
▁Hoá	-9.86738
tháng	-9.86901
▁trục	-9.86914
▁Lợi	-9.86944
▁cậu	-9.87076
▁Vietcombank	-9.87256
▁Song	-9.87371
▁Đáng	-9.87385
▁mù	-9.8743
45	-9.8747
▁tràn	-9.87582
▁hiếm	-9.87975
▁Tòa	-9.8807
▁hoàng	-9.88158
▁hoang	-9.88183
▁pháo	-9.88249
er	-9.88327
▁bụng	-9.88362
▁2014	-9.88438
▁chẳ	-9.88439
▁Môi	-9.88648
▁lụt	-9.88844
▁cước	-9.8885
▁lí	-9.88859
▁Hiền	-9.88963
▁Nhận	-9.89001
▁Xuyên	-9.89005
▁trứng	-9.89189
▁Cát	-9.89236
▁3.	-9.89284
▁Arsenal	-9.89447
▁Hình	-9.89451
▁sắm	-9.89651
▁Hành	-9.89673
▁Khoảng	-9.89849
▁MV	-9.89972
▁miệng	-9.90047
▁xóm	-9.90149
▁bù	-9.90282
▁mệnh	-9.90325
▁Tú	-9.90369
▁vướng	-9.90395
▁Đề	-9.90499
▁Căn	-9.90554
▁hứng	-9.90582
▁34	-9.90862
▁Thụy	-9.91041
▁quên	-9.91138
▁Thư	-9.91141
▁VND	-9.91211
không	-9.91461
▁Phụ	-9.91542
▁vườn	-9.91711
▁khống	-9.91712
com	-9.91726
▁80	-9.92212
▁bó	-9.9233
▁phổi	-9.92582
▁lùi	-9.9259
▁góc	-9.92901
▁lỗ	-9.92969
▁Bồ	-9.92991
▁Di	-9.93191
▁UAE	-9.93337
quận	-9.93348
▁Trái	-9.93465
▁33	-9.93695
▁nhịp	-9.93839
▁Viettel	-9.94514
▁02	-9.94824
▁Huấn	-9.94842
▁kiên	-9.94895
▁Top	-9.95096
▁thăng	-9.95102
▁lọt	-9.95206
▁Mức	-9.95288
▁Barca	-9.95372
▁cổng	-9.95429
▁hoảng	-9.95536
▁Nhi	-9.9558
▁đậm	-9.95987
ch	-9.96001
đem	-9.96049
▁già	-9.96053
▁kín	-9.96065
▁Quan	-9.96126
▁Hiếu	-9.96186
▁Thạch	-9.96328
▁Loan	-9.96436
▁mát	-9.96539
▁tường	-9.96558
▁Thổ	-9.96667
Bộ	-9.9677
▁lúa	-9.9693
▁Joe	-9.9696
▁a	-9.97017
▁Dưới	-9.97055
▁50%	-9.97233
▁Vũng	-9.97309
▁Toán	-9.9743
▁trúc	-9.9747
▁Bái	-9.975
▁Olympic	-9.97583
▁Hồi	-9.9768
▁TAND	-9.97744
▁BIDV	-9.97749
▁mơ	-9.97832
▁mê	-9.98001
▁ngàn	-9.98051
▁Đăng	-9.98058
▁37	-9.98084
▁Nữ	-9.98159
tỉnh	-9.98269
▁Italia	-9.98307
▁nề	-9.98365
▁Hướng	-9.98385
▁tùy	-9.98423
Đà	-9.98433
▁2016	-9.98468
▁ổ	-9.98487
▁cãi	-9.98537
▁Bác	-9.98603
▁Sóc	-9.98658
▁Liêm	-9.98689
▁top	-9.98928
▁thuẫn	-9.99075
▁II	-9.99397
an	-9.99413
▁So	-9.99566
▁buýt	-9.99709
▁cắp	-9.99786
▁Tham	-9.99793
▁tông	-9.99876
▁Brazil	-9.99949
▁trà	-10.0003
▁đền	-10.0009
▁xơ	-10.0009
▁Tháp	-10.0025
▁mực	-10.0045
▁VTV	-10.0048
▁Putin	-10.0048
▁Chu	-10.0067
▁hồng	-10.0084
9	-10.0085
▁tàng	-10.0086
▁tân	-10.0097
.2020	-10.0098
▁quang	-10.0129
40	-10.015
▁đà	-10.0162
▁bạch	-10.0193
xã	-10.0196
▁hàm	-10.0205
▁Sinh	-10.0218
▁bột	-10.0224
▁dập	-10.0225
▁dị	-10.0237
Đ	-10.0242
▁thù	-10.0263
▁Cảng	-10.0287
▁Hôm	-10.0299
▁150	-10.0301
▁Dung	-10.0311
▁bám	-10.0313
▁mổ	-10.0326
▁Bài	-10.0344
▁Diễn	-10.037
▁48	-10.0389
▁đồn	-10.0395
▁Lịch	-10.0407
▁khấu	-10.0419
▁vời	-10.043
8	-10.0439
▁lạm	-10.0441
▁Hiệu	-10.0449
▁chó	-10.045
▁oxy	-10.0451
▁xuân	-10.0459
▁hề	-10.0462
▁ngư	-10.0478
v	-10.0484
▁Al	-10.0484
▁sương	-10.0489
▁lậu	-10.0497
▁thổ	-10.0502
▁điệp	-10.051
▁Chuyên	-10.0516
▁treo	-10.0518
▁Lệ	-10.0519
Cần	-10.0528
▁in	-10.0528
▁BKS	-10.0532
▁gan	-10.0545
▁Quận	-10.0576
▁nấu	-10.0592
▁sót	-10.06
▁nỗi	-10.0602
▁Reuters	-10.0614
▁cốt	-10.0623
▁cơm	-10.0627
▁sa	-10.063
▁trôi	-10.0638
O	-10.0658
▁SJC	-10.0662
▁ngọt	-10.0679
▁dược	-10.0679
▁Thịnh	-10.0682
▁Nhóm	-10.0686
▁ống	-10.0698
▁trông	-10.0723
▁camera	-10.0724
▁Na	-10.0739
▁2017,	-10.0747
▁Câu	-10.0753
▁Thậm	-10.0754
▁trừng	-10.0758
▁dã	-10.076
▁mỏi	-10.0806
▁họa	-10.0823
▁xứng	-10.083
▁Đồn	-10.084
▁hùng	-10.0859
▁51	-10.0864
▁cờ	-10.0865
▁mấy	-10.0871
▁táo	-10.0874
▁Tottenham	-10.088
▁đức	-10.0893
▁dâm	-10.0902
▁nhãn	-10.0903
▁sôi	-10.0905
▁O	-10.0918
▁vươn	-10.092
▁Israel	-10.0922
▁ngự	-10.0924
▁dỡ	-10.093
▁tả	-10.0947
▁Jong	-10.0968
X	-10.0978
▁bớt	-10.0978
▁thùng	-10.0985
▁400	-10.0986
12	-10.0998
▁Địa	-10.101
▁BTS	-10.1055
▁Saudi	-10.1061
▁lầm	-10.1066
▁tắm	-10.1066
▁chuyền	-10.1072
▁Thạnh	-10.1101
▁khuyết	-10.1109
▁Khí	-10.113
▁Mọi	-10.1137
▁d	-10.115
▁Danh	-10.116
50	-10.1162
▁Nhĩ	-10.1164
▁2015	-10.1169
▁ùn	-10.117
▁lỏng	-10.1181
.2021,	-10.1196
▁dậy	-10.1197
E	-10.1199
▁Barcelona	-10.1199
▁chẩn	-10.1207
▁38	-10.1229
▁mệt	-10.1254
▁PGS	-10.126
▁dời	-10.1265
▁ngon	-10.1283
▁c	-10.1285
▁Viên	-10.1309
▁tôm	-10.1316
▁Cái	-10.1328
▁Thăng	-10.1333
▁thép	-10.1336
▁đứa	-10.1344
▁cương	-10.1351
▁Hỗ	-10.1355
▁giấu	-10.1374
▁khử	-10.1386
.2021	-10.1386
▁1.5	-10.1393
▁Blackpink	-10.1397
▁Trạm	-10.1402
▁Cúp	-10.141
▁Sông	-10.1412
▁hoà	-10.1419
▁đạn	-10.1421
▁Quyền	-10.144
▁Thi	-10.1453
▁Hệ	-10.1498
lít	-10.1513
▁cười	-10.1517
USD	-10.1519
▁Thay	-10.1531
▁kiểu	-10.1532
▁bếp	-10.1559
▁điển	-10.1563
▁tắt	-10.1592
▁Chia	-10.1603
▁vỏ	-10.1663
▁bò	-10.1664
▁2022,	-10.1671
▁ho	-10.1671
▁uỷ	-10.1682
▁củng	-10.1696
▁mâu	-10.1716
▁Triệu	-10.1716
▁Arabia	-10.1731
▁nhiêu	-10.1731
▁Thiện	-10.1774
▁chùa	-10.1786
▁HAGL	-10.1792
▁mét	-10.1811
▁Hạnh	-10.1818
▁phỏng	-10.1826
▁Huyện	-10.1833
▁Cấp	-10.1848
▁đạp	-10.1854
Hồ	-10.1856
▁nét	-10.1858
▁than	-10.1862
▁My	-10.1862
▁hỗn	-10.1866
▁khiếu	-10.1878
▁đáo	-10.1878
▁dọc	-10.1885
-2.	-10.189
▁55	-10.1895
▁39	-10.1899
25	-10.1904
▁Doanh	-10.1907
▁thảm	-10.1913
▁hung	-10.1914
▁hầm	-10.1916
▁Rịa	-10.1928
▁Washington	-10.1947
▁Vòng	-10.1962
▁Lee	-10.1962
▁MC	-10.1974
▁giây	-10.2002
ể	-10.2007
▁ĐH	-10.2015
▁dâng	-10.2029
▁03	-10.2038
▁Nghi	-10.2048
▁ghép	-10.2051
▁bề	-10.2054
▁tứ	-10.2055
▁cát	-10.2073
▁Bị	-10.2075
18	-10.2076
▁test	-10.2126
▁cất	-10.2152
vn	-10.2161
▁container	-10.2162
.2017	-10.2162
▁la	-10.2167
▁nồng	-10.2171
▁Là	-10.2178
▁Khai	-10.2183
▁Manchester	-10.2188
▁Ca	-10.2199
▁bia	-10.2201
▁Trăng	-10.2203
▁chua	-10.2216
▁che	-10.2234
▁Nhung	-10.2243
Trung	-10.2256
▁trại	-10.2258
▁Huệ	-10.2267
▁thiệp	-10.2268
▁nhựa	-10.228
▁1,5	-10.2285
▁thói	-10.2287
▁PSG	-10.2297
▁BV	-10.2301
▁dụ	-10.2308
▁chăn	-10.2318
▁Xe	-10.2319
▁KCN	-10.2337
▁Sức	-10.237
▁x	-10.2372
▁muối	-10.2374
▁miếng	-10.2378
▁ngầm	-10.2391
▁hẹp	-10.2391
▁hảo	-10.2404
▁Tăng	-10.2405
70	-10.2414
16	-10.2416
▁tan	-10.2426
▁khoáng	-10.2442
▁dính	-10.2444
▁AFC	-10.2469
▁ví	-10.248
▁online	-10.2484
▁gắt	-10.2489
Công	-10.2494
▁thờ	-10.25
21	-10.2502
▁Euro	-10.2505
▁lang	-10.2511
▁giáp	-10.2512
▁dường	-10.2516
▁Phần	-10.2524
al	-10.253
▁Kiều	-10.2539
▁Tờ	-10.2547
▁xưởng	-10.2549
▁taxi	-10.2552
▁sỹ	-10.2562
▁quét	-10.2565
▁co	-10.2607
▁bom	-10.2609
▁dàn	-10.2614
▁bụi	-10.2618
11	-10.2624
▁nút	-10.2633
▁Chứ	-10.2648
▁hò	-10.2652
▁Vậy	-10.2653
▁De	-10.2655
▁trầm	-10.2669
▁Mở	-10.268
▁gay	-10.2721
▁Vi	-10.2726
80	-10.2727
▁BN	-10.2731
▁2.000	-10.2737
▁dạ	-10.2773
▁lồ	-10.2782
▁ảo	-10.2784
▁thước	-10.2802
▁giường	-10.2817
▁Quá	-10.2819
▁Vietnam	-10.2823
▁Vietinbank	-10.2845
▁ngộ	-10.285
▁Huyền	-10.2856
▁trống	-10.2857
▁mãi	-10.2869
▁1.2	-10.2877
▁Tỉ	-10.2882
▁gọn	-10.2882
▁Argentina	-10.29
▁tròn	-10.2902
▁nhũng	-10.2903
▁bây	-10.2931
từ	-10.2932
▁răng	-10.2932
▁Lạng	-10.2934
▁phun	-10.2961
▁Trắng	-10.2961
▁Khê	-10.3007
▁lấn	-10.301
▁nhở	-10.301
▁fan	-10.3019
▁cứng	-10.3021
▁Ánh	-10.3058
▁1.3	-10.307
▁Tô	-10.3076
▁Pa	-10.3081
▁Lam	-10.3085
▁rạng	-10.3122
ấy	-10.3133
▁EU	-10.3138
2,	-10.3139
▁Đêm	-10.3139
▁kia	-10.314
▁Đơn	-10.3142
▁Em	-10.3151
▁Trí	-10.3153
3,	-10.3156
▁trọn	-10.3162
▁Myanmar	-10.3165
▁J	-10.3184
▁May	-10.3186
▁Kiến	-10.3194
▁vĩ	-10.3209
▁Chợ	-10.3217
▁giấc	-10.3224
▁tách	-10.3224
▁Asian	-10.3237
▁thả	-10.3244
▁Nhơn	-10.3246
▁4.	-10.3255
17	-10.3258
▁Cuối	-10.3261
▁cụm	-10.3263
▁Thúy	-10.3264
ất	-10.3264
▁Corona	-10.327
▁2013	-10.3273
▁trần	-10.3277
▁Thiếu	-10.3299
▁xóa	-10.33
▁10.000	-10.3303
▁dồn	-10.3305
▁kẹt	-10.3306
▁củ	-10.3321
):	-10.3326
▁mì	-10.3333
▁Hỏa	-10.3338
▁1.4	-10.3339
▁Lạc	-10.3343
▁York	-10.3345
▁Ai	-10.335
▁mượn	-10.3357
79	-10.336
60	-10.3362
▁Đô	-10.337
do	-10.337
.2022	-10.3376
▁Canada	-10.3383
▁lãng	-10.3385
▁dốc	-10.3392
▁Cửa	-10.3405
▁Thuỷ	-10.3407
▁nhảy	-10.3424
▁hẳn	-10.3425
95	-10.3458
▁viễn	-10.3465
▁dọn	-10.3466
▁Hoặc	-10.3468
▁chàng	-10.3474
▁120	-10.3477
08	-10.3482
▁khóc	-10.3484
▁Nói	-10.3485
▁thoải	-10.3499
▁chu	-10.3518
▁diệt	-10.3534
▁mảnh	-10.3541
▁100.000	-10.3543
▁trăng	-10.3552
▁cự	-10.3553
▁khoá	-10.3557
en	-10.356
90	-10.3577
▁axit	-10.3585
▁mạo	-10.3589
▁Kon	-10.3614
▁FIFA	-10.3632
▁phanh	-10.3632
▁vả	-10.3648
1,	-10.3649
▁Yến	-10.3656
▁khớp	-10.3659
▁tốn	-10.3661
▁kỉ	-10.3665
▁Tuyển	-10.3666
▁ấp	-10.3671
▁Lần	-10.368
▁hối	-10.3683
▁mỏ	-10.3696
▁ân	-10.3728
▁khuyên	-10.3737
▁ôm	-10.3807
▁42	-10.381
Q	-10.3823
▁Tử	-10.3824
▁tiễn	-10.3831
6,	-10.3835
▁ngạch	-10.3837
ở	-10.3837
on	-10.3841
▁ha	-10.3885
▁GS	-10.3886
▁43	-10.3893
▁NASA	-10.3899
▁canh	-10.3901
đ	-10.3913
▁gãy	-10.3922
▁Juventus	-10.3926
▁Sáu	-10.3929
▁chênh	-10.393
▁cài	-10.3932
▁sập	-10.3941
có	-10.3941
▁Than	-10.3951
▁500.000	-10.3957
▁Thiết	-10.3976
▁hôi	-10.3987
▁1.7	-10.3989
▁vải	-10.4001
▁Cam	-10.4003
75	-10.4013
▁iPhone	-10.4013
01	-10.4039
▁vẹn	-10.404
ũng	-10.4042
▁Đất	-10.4044
▁Bá	-10.4052
▁Nó	-10.4064
Trong	-10.4069
▁khôi	-10.4069
th	-10.4092
▁Điển	-10.4094
▁giọng	-10.4102
▁41	-10.4108
▁vợt	-10.4127
▁protein	-10.4129
▁Apple	-10.4133
▁Môn	-10.4134
▁vất	-10.416
▁thơ	-10.4172
▁YouMe	-10.4172
▁bơm	-10.4203
▁Điền	-10.4227
▁rẻ	-10.4254
▁Twitter	-10.427
▁Google	-10.4286
phường	-10.4288
▁võ	-10.4289
▁khâu	-10.4294
▁cỏ	-10.4307
▁ong	-10.4309
▁Tín	-10.4316
▁sốc	-10.4318
▁ngõ	-10.4329
▁Đạt	-10.4333
▁lò	-10.4335
▁Nghiên	-10.4347
▁tủ	-10.4353
▁Sản	-10.4359
▁trắc	-10.4381
▁xoay	-10.4381
▁chìm	-10.4382
▁luồng	-10.4415
W	-10.4417
▁hoan	-10.4419
▁MTV	-10.4429
▁dáng	-10.4433
▁bê	-10.4445
▁gợi	-10.4453
▁65	-10.4458
▁lãm	-10.4461
35	-10.4471
▁6,	-10.4473
NG	-10.4481
▁sụt	-10.4481
▁website	-10.4489
▁lắm	-10.4489
▁Sử	-10.4499
▁dám	-10.4505
▁Trinh	-10.4505
ĐT	-10.4513
14	-10.4518
▁2017.	-10.4521
▁muộn	-10.4541
▁rãi	-10.457
ây	-10.4587
▁Iraq	-10.4591
▁tĩnh	-10.4594
▁Vị	-10.4596
▁Gần	-10.4596
TTg	-10.4602
▁Phùng	-10.4612
▁Ví	-10.4634
▁leo	-10.4639
▁News	-10.464
▁kiêm	-10.4663
▁nại	-10.4665
▁sánh	-10.4665
▁III	-10.4671
▁Thêm	-10.4672
▁Dược	-10.468
▁khát	-10.4685
▁Viet	-10.4688
▁khoác	-10.4688
▁Tuyết	-10.4719
▁bổng	-10.4723
▁Vladimir	-10.4742
▁NNPTNT	-10.4747
65	-10.4757
▁lường	-10.4766
▁chín	-10.4777
▁dò	-10.4787
▁Tường	-10.4792
▁vương	-10.4805
▁(1	-10.4818
▁Phật	-10.482
▁đắt	-10.4822
▁ngực	-10.483
▁kí	-10.4846
▁lấp	-10.4846
▁cưỡng	-10.485
▁ốm	-10.4854
▁gián	-10.4872
▁cồn	-10.4873
▁mỡ	-10.4883
▁Tuần	-10.4887
▁chanh	-10.489
▁1.8	-10.4897
▁nạp	-10.4904
▁Bàn	-10.4909
▁Bỉ	-10.4916
▁1:	-10.4921
▁móc	-10.493
▁dội	-10.4933
▁săn	-10.4936
▁Vĩ	-10.4941
▁Bích	-10.4945
▁bơi	-10.4966
▁cúng	-10.4966
▁vầy	-10.4967
▁Mường	-10.4972
▁lưng	-10.4984
▁CSĐT	-10.499
▁mãn	-10.5
ri	-10.501
09	-10.5021
2.	-10.5038
ra	-10.5039
▁10%	-10.504
▁600	-10.5042
Các	-10.5049
▁Tum	-10.51
13	-10.511
▁lận	-10.5112
▁Làm	-10.5136
▁XII	-10.5145
▁Tiếng	-10.5146
▁Đã	-10.5151
05	-10.519
▁Chưa	-10.5193
▁chừng	-10.5224
▁Sang	-10.5228
▁Tương	-10.5239
▁Airlines	-10.5245
Nếu	-10.5265
▁tễ	-10.528
▁Bóng	-10.5295
▁BOT	-10.5315
▁thơm	-10.5318
▁thự	-10.5325
▁karaoke	-10.5332
▁bá	-10.5344
ông	-10.5352
▁khơi	-10.5359
▁Mục	-10.5359
▁ồn	-10.5359
▁QL	-10.5363
▁7,	-10.5382
▁Bất	-10.5382
▁hi	-10.5383
▁Milan	-10.5388
▁mặn	-10.539
▁vỉa	-10.5403
▁72	-10.5421
▁Ra	-10.5421
▁Tuyến	-10.5423
▁30%	-10.5428
UBND	-10.5432
▁Ngữ	-10.5438
▁dâu	-10.5438
55	-10.544
ing	-10.545
▁Tự	-10.5456
▁duyên	-10.5466
or	-10.5468
▁tuệ	-10.5469
▁75	-10.5477
▁ròng	-10.5478
▁Tre	-10.5478
▁phái	-10.5482
▁hoạn	-10.5484
▁Lập	-10.5488
▁XIII	-10.5497
▁CN	-10.55
▁gom	-10.5501
▁ngợi	-10.5509
▁trộn	-10.551
30:	-10.5512
▁đẻ	-10.5527
▁200.000	-10.5535
▁hụt	-10.554
▁tàn	-10.5543
Người	-10.5562
▁Thùy	-10.5563
▁Đạo	-10.5577
▁bẩn	-10.5626
▁thô	-10.5633
▁ái	-10.5645
▁ngọn	-10.5653
▁chặng	-10.5654
▁khép	-10.5666
to	-10.5667
▁Đáp	-10.5667
▁rắn	-10.568
▁chai	-10.5686
▁HĐQT	-10.5713
ma	-10.5726
▁44	-10.5728
.2019,	-10.5736
▁lít	-10.5745
man	-10.5747
▁lông	-10.5748
▁đừng	-10.5757
▁47	-10.5767
▁đam	-10.5776
il	-10.5796
▁ngơi	-10.5808
▁khói	-10.5814
.2018,	-10.5818
▁Bayern	-10.5823
CT	-10.5829
▁cẩn	-10.5849
▁54	-10.5849
▁toà	-10.5854
▁album	-10.5858
▁Trì	-10.5867
nếu	-10.5873
▁giày	-10.5902
▁đứt	-10.5905
Quảng	-10.5915
tăng	-10.5915
▁Thí	-10.5926
▁Tokyo	-10.5928
▁bạ	-10.5937
▁ngưng	-10.5938
▁Vùng	-10.5953
▁Tôn	-10.5957
24	-10.5959
▁lân	-10.5961
▁Kỹ	-10.5961
▁trượt	-10.5965
Đây	-10.5976
▁5.000	-10.5987
▁gánh	-10.6005
▁đựng	-10.6012
▁lăn	-10.6015
▁u	-10.603
▁2:	-10.6032
ta	-10.604
▁1-2	-10.6045
▁đê	-10.6056
▁YouTube	-10.6062
▁1.1	-10.6063
▁Kỷ	-10.607
▁bế	-10.6084
Vừa	-10.6092
trong	-10.6092
▁Tạ	-10.611
▁Giới	-10.6112
85	-10.6115
▁tu	-10.6119
▁rèn	-10.6125
▁8,	-10.6128
▁Quế	-10.6135
▁3.000	-10.6137
▁Ngành	-10.6137
▁thợ	-10.6155
▁46	-10.6161
▁game	-10.6161
thuộc	-10.617
▁kĩ	-10.6173
▁quyên	-10.6217
Thanh	-10.6246
9%	-10.6273
▁long	-10.6282
▁tẩy	-10.6288
ưu	-10.6291
▁voi	-10.6294
bao	-10.6295
▁calo	-10.6298
▁ném	-10.6307
.2016	-10.6312
▁bát	-10.632
▁Bitcoin	-10.6337
▁FC	-10.6344
▁Trả	-10.6349
▁Nhìn	-10.6352
▁chiêu	-10.6356
▁lật	-10.6376
▁Đống	-10.6388
▁Sửu	-10.6393
Nhữ	-10.6397
▁Vạn	-10.64
▁Lĩnh	-10.6428
▁Thuế	-10.6429
NQ	-10.6432
z	-10.6452
▁nát	-10.6453
▁Mùa	-10.6455
03	-10.6465
▁IS	-10.6465
cm	-10.6477
re	-10.6482
▁2-0	-10.6482
66	-10.6485
▁xưa	-10.6487
68	-10.6489
67	-10.6506
▁Su	-10.6511
es	-10.6514
▁đáy	-10.6514
▁Sỹ	-10.6517
▁Miss	-10.652
▁250	-10.6526
▁trội	-10.6526
CĐ	-10.6537
▁nhạy	-10.6542
▁W	-10.6543
4%	-10.6552
▁20%	-10.6564
▁nôn	-10.6566
▁hà	-10.6566
04	-10.6567
▁BCH	-10.6571
▁SHB	-10.6593
▁nghiện	-10.6601
co	-10.6602
▁tuý	-10.6605
▁San	-10.6617
▁50.000	-10.6624
▁gối	-10.6626
▁Honda	-10.6626
.2021.	-10.663
▁Internet	-10.6646
▁mùng	-10.6657
▁kg	-10.6658
▁Táo	-10.666
▁1.6	-10.6662
▁tọa	-10.6681
▁Hán	-10.6682
▁2016,	-10.6702
▁Mourinho	-10.6706
▁Hàm	-10.6709
▁Cập	-10.6714
▁1-0	-10.6716
▁lão	-10.6717
ấp	-10.6724
▁Dần	-10.6726
▁Mátxcơva	-10.6726
36	-10.6732
▁nới	-10.6741
34	-10.6742
▁Cổng	-10.676
▁49	-10.6769
▁sơn	-10.6781
48	-10.6791
▁Km	-10.6794
▁đắc	-10.6802
▁ôn	-10.6808
▁1-1	-10.6811
02	-10.6815
le	-10.6826
▁xao	-10.6845
▁1.9	-10.6846
▁tím	-10.6853
▁CNN	-10.6856
▁lứa	-10.6863
▁gìn	-10.6894
Việc	-10.6913
▁điệu	-10.6914
▁RT	-10.6915
38	-10.6921
hằm	-10.6935
▁Qatar	-10.6936
▁nhầm	-10.6939
▁quãng	-10.695
▁Chinh	-10.695
▁63	-10.695
▁Sư	-10.6955
92	-10.6956
▁Inter	-10.6957
laodong	-10.6958
BN	-10.6963
oz	-10.6967
▁20.000	-10.6971
▁Cựu	-10.6976
▁vịnh	-10.6987
▁Phút	-10.6988
▁ức	-10.7003
▁Đan	-10.7004
▁hố	-10.7004
▁nhàng	-10.7006
▁Thầy	-10.701
▁lỡ	-10.7017
▁thửa	-10.7063
▁Trời	-10.7076
el	-10.708
▁trân	-10.7085
▁Khối	-10.7091
▁Trấn	-10.7095
▁Hong	-10.7099
ne	-10.7101
▁dưa	-10.7112
▁CDC	-10.7119
ịp	-10.7129
▁kề	-10.7137
▁nhắm	-10.7137
▁Paris	-10.7137
▁Quả	-10.7146
▁san	-10.716
▁Trưng	-10.7168
▁cai	-10.7179
▁Siêu	-10.7179
▁Liga	-10.719
▁WHO	-10.7196
▁70%	-10.72
▁2-3	-10.7206
▁lũy	-10.7207
Khi	-10.7223
▁Phiên	-10.7224
▁khứ	-10.7229
▁lắc	-10.7253
▁mũ	-10.7266
▁Mã	-10.7276
▁700	-10.7286
▁Th	-10.7294
▁lặng	-10.7307
▁05	-10.731
▁cốc	-10.7313
▁Cán	-10.7317
▁đắp	-10.7324
▁lồng	-10.7336
▁Xuất	-10.7345
▁heo	-10.7349
1%	-10.7351
▁thủng	-10.7361
▁9,	-10.7366
▁lề	-10.7378
▁tựu	-10.7385
▁al	-10.7387
▁Kong	-10.7391
na	-10.7393
▁lốp	-10.7397
▁vẽ	-10.7397
▁Tin	-10.741
Thái	-10.7431
▁Sao	-10.7448
▁800	-10.746
▁Nhâm	-10.7462
▁LĐTBXH	-10.7463
▁châm	-10.7468
▁xô	-10.7469
lo	-10.7474
▁Duyên	-10.7476
▁(2	-10.7477
99	-10.7478
▁luân	-10.7478
▁thắt	-10.7478
▁Nhờ	-10.748
▁XV	-10.7485
▁1,2	-10.7486
▁PCCC	-10.7492
ad	-10.75
▁Khang	-10.75
Không	-10.7512
▁52	-10.7529
ol	-10.7533
▁Son	-10.7538
▁In	-10.7538
▁Hãng	-10.7538
▁nấm	-10.7544
29	-10.7544
▁Cư	-10.7555
▁Uyên	-10.756
▁khánh	-10.7563
▁giận	-10.7571
trú	-10.7578
▁ngột	-10.7586
▁khoảnh	-10.7587
▁300.000	-10.759
▁Ha	-10.7591
86	-10.7597
88	-10.7611
59	-10.7615
▁úy	-10.762
▁bỏng	-10.7627
Mái	-10.7634
▁Vật	-10.7642
▁Lạt	-10.7643
▁Tr	-10.7658
▁euro	-10.767
▁nở	-10.767
▁Atletico	-10.7704
▁2008	-10.7711
▁nhì	-10.7727
▁Hạt	-10.7729
26	-10.7736
▁Ea	-10.7742
▁2012	-10.7749
▁thắc	-10.7765
▁Thuột	-10.777
▁thâm	-10.7771
▁xôn	-10.7779
▁Nguồn	-10.7794
▁West	-10.78
▁Mexico	-10.7805
▁Kiatisak	-10.7809
▁Pep	-10.783
▁Fed	-10.7847
07	-10.785
47	-10.7863
▁Gò	-10.787
tức	-10.7875
▁vây	-10.7877
▁nếp	-10.7883
▁Neymar	-10.7905
▁lưỡng	-10.7917
39	-10.7919
▁2025	-10.7925
Hiện	-10.7931
vi	-10.7939
49	-10.7939
▁62	-10.7942
▁Oanh	-10.7945
ro	-10.7955
▁chuột	-10.7956
3.	-10.7962
ba	-10.7979
▁chuối	-10.7991
Nghệ	-10.7999
▁Xanh	-10.8001
▁2010	-10.8001
▁toả	-10.8003
con	-10.8003
64	-10.8005
▁Lục	-10.8019
phapluat	-10.8025
▁Hy	-10.8034
▁ngặt	-10.8036
▁qu	-10.8051
▁Hiển	-10.8054
▁nã	-10.8058
44	-10.8061
▁BS	-10.8065
▁bận	-10.8065
▁thoả	-10.8065
▁Toyota	-10.8071
▁09	-10.8081
son	-10.8081
▁0961360559	-10.8088
▁HĐXX	-10.809
▁Cha	-10.8109
▁Khắc	-10.8111
▁đọng	-10.8114
▁Chiếc	-10.8114
58	-10.8121
▁đĩa	-10.8123
▁e	-10.8137
us	-10.8137
▁EURO	-10.8141
▁Li	-10.8149
▁Núi	-10.8152
37	-10.8155
27	-10.8156
▁Pfizer	-10.8159
Mỹ	-10.8162
▁ám	-10.8162
▁Trạch	-10.8164
ặp	-10.8165
▁Ly	-10.8173
▁chém	-10.8175
33	-10.8178
▁ào	-10.8181
▁HCM	-10.8181
hênh	-10.8186
89	-10.8186
▁mụn	-10.8198
▁Nhưỡng	-10.8198
▁vọt	-10.8198
ối	-10.8201
▁xinh	-10.821
▁xạ	-10.8217
▁lơ	-10.8222
▁Link	-10.8224
▁gạch	-10.823
/2021	-10.8232
▁thoái	-10.8233
aer	-10.8243
▁Bách	-10.8257
theo	-10.8258
▁2.9	-10.8264
▁Krông	-10.8269
▁23.3	-10.8274
▁thoáng	-10.828
▁UEFA	-10.8284
▁tiệc	-10.8287
▁Times	-10.8287
77	-10.8294
▁Bảng	-10.8294
76	-10.8309
▁Sĩ	-10.831
▁môtô	-10.8316
▁tước	-10.8317
98	-10.8321
os	-10.8332
ur	-10.8334
Mỗi	-10.8338
▁Khách	-10.834
▁Giờ	-10.8346
▁mồ	-10.8346
▁ác	-10.8347
uvan	-10.8349
▁thềm	-10.8352
▁tiệm	-10.8357
▁dồi	-10.8357
J	-10.8361
VN	-10.8367
69	-10.8368
▁Group	-10.8372
▁1.500	-10.8376
▁Omicron	-10.8393
▁cúp	-10.8402
▁su	-10.8426
▁Chân	-10.843
▁Mi	-10.843
▁đói	-10.8445
▁xà	-10.8449
▁phu	-10.845
▁GD	-10.8461
▁bách	-10.8465
▁30.4	-10.8468
▁Hầu	-10.8472
▁futsal	-10.8476
▁2,5	-10.848
▁London	-10.8488
êm	-10.8495
▁suối	-10.8501
▁5%	-10.8502
▁Vệ	-10.8509
32	-10.8513
▁ngạc	-10.8515
▁lau	-10.8528
06	-10.8529
▁triều	-10.853
.2019	-10.8541
bán	-10.8544
▁dán	-10.8548
▁cholesterol	-10.8549
▁cắm	-10.8549
▁Nên	-10.855
uổi	-10.8553
▁80%	-10.8556
▁Co	-10.8561
▁vội	-10.8573
TPHCM	-10.8575
▁Khải	-10.858
▁chinh	-10.8584
.2018	-10.8586
▁huyền	-10.8596
▁NATO	-10.8603
”-	-10.8603
te	-10.8604
de	-10.8615
▁mảng	-10.8615
▁bông	-10.8616
▁bốn	-10.8618
46	-10.8622
▁Vịnh	-10.8622
▁Phù	-10.864
▁khoanh	-10.8642
▁Phủ	-10.8648
la	-10.8648
▁hổ	-10.8649
▁00	-10.865
▁đuối	-10.8652
84	-10.8654
▁hoại	-10.8659
▁Cung	-10.8659
▁Xét	-10.867
▁Đánh	-10.8678
▁Gi	-10.868
▁thọ	-10.868
78	-10.8683
▁ranh	-10.8694
▁53	-10.8705
▁say	-10.8712
▁5.	-10.872
▁Nhã	-10.8721
▁113000000758	-10.8725
▁FLC	-10.8726
▁Bluezone	-10.8737
▁Bluetooth	-10.8738
▁nứt	-10.8738
▁2-1	-10.8739
43	-10.8742
▁dịu	-10.8751
một	-10.8752
▁xông	-10.8755
▁bắp	-10.8757
▁Kpop	-10.8762
at	-10.8773
▁vắc	-10.8775
Tết	-10.8788
▁58	-10.8791
▁Diệu	-10.8793
▁Sân	-10.8794
▁vang	-10.8794
▁Pogba	-10.8812
▁họng	-10.8817
▁Trẻ	-10.8819
▁DOJI	-10.8824
▁RON	-10.8826
▁Thần	-10.8828
▁no	-10.8834
▁TT	-10.8838
83	-10.8846
Sau	-10.8851
▁Hiểu	-10.8855
▁cỡ	-10.8855
▁bọc	-10.8856
▁s	-10.8863
1.	-10.8873
▁198	-10.8874
▁thuần	-10.8874
▁bơ	-10.8878
▁de	-10.888
▁nảy	-10.8893
▁nhẫn	-10.8899
▁Vy	-10.8905
1)	-10.8905
▁Xin	-10.8915
▁tỏi	-10.8917
▁cọc	-10.892
28	-10.8928
87	-10.8938
▁Mẹ	-10.8939
▁Solsk	-10.8949
▁n	-10.8949
▁23.2	-10.8953
▁IV	-10.8969
▁Cá	-10.8974
ie	-10.8979
ê	-10.8982
▁23.1	-10.8983
▁Grab	-10.8984
▁thắn	-10.8986
▁64	-10.8987
▁xát	-10.8989
▁đấy	-10.9
▁Cương	-10.9001
▁dĩ	-10.9006
▁mến	-10.9006
Anh	-10.9013
khoảng	-10.9013
▁Đàm	-10.9017
ine	-10.9025
63	-10.9039
▁110	-10.9043
▁(19	-10.9043
▁1/8	-10.9052
▁dừa	-10.9057
▁mòn	-10.9057
ar	-10.9073
▁3.5	-10.9079
▁Cửu	-10.9096
▁táng	-10.9098
di	-10.9103
▁Lo	-10.9109
▁khoai	-10.9119
-1	-10.9129
NH	-10.9134
▁móng	-10.9141
▁56	-10.9141
▁rung	-10.9148
▁nhan	-10.9151
▁Hyundai	-10.9165
42	-10.9169
▁Phải	-10.9192
Có	-10.9207
▁Tiêu	-10.9217
▁web	-10.923
▁Kiệt	-10.923
▁Sports	-10.9234
▁kem	-10.9249
▁Ho	-10.925
▁bón	-10.9258
▁tụng	-10.9277
▁Samsung	-10.9288
▁AFP	-10.9294
ia	-10.9295
▁Chất	-10.9297
ống	-10.9299
tương	-10.9304
▁Ghi	-10.9328
ton	-10.9331
▁Ngọ	-10.9338
▁Hoạt	-10.9343
it	-10.9351
▁màng	-10.9352
▁NS	-10.9354
▁bì	-10.9357
57	-10.9378
▁cậy	-10.9399
▁Mộc	-10.94
-3	-10.9403
▁0979310518	-10.9406
▁Tứ	-10.9411
▁dẹp	-10.9412
▁Phân	-10.9419
▁neo	-10.9426
▁tần	-10.9438
72	-10.9447
62	-10.9449
73	-10.9461
▁90%	-10.9473
▁MTTQ	-10.9481
▁trùm	-10.9482
▁Sen	-10.9488
▁2015,	-10.9501
▁đôn	-10.9519
▁St	-10.9529
▁68	-10.9531
2)	-10.9539
▁180	-10.9544
▁sum	-10.9546
▁ngào	-10.9558
▁Jack	-10.9565
▁lộn	-10.9578
▁King	-10.9587
▁024.39232748	-10.9592
▁Bàng	-10.9593
▁Nghiêm	-10.9599
▁PC	-10.9604
▁Giả	-10.9611
ealand	-10.9612
▁chim	-10.9613
▁bi	-10.9626
▁thổi	-10.9635
▁soạn	-10.9648
▁Miền	-10.9653
▁(3	-10.9659
▁06	-10.9662
▁Bố	-10.9662
CN	-10.9662
▁men	-10.9672
▁Jordan	-10.9693
▁2009	-10.9697
▁Ham	-10.9712
▁hiếp	-10.9713
▁Europa	-10.9713
▁xá	-10.9745
▁57	-10.9748
▁(20	-10.975
▁Canh	-10.9752
▁92	-10.9764
▁Tới	-10.9768
▁đ	-10.977
mo	-10.9776
▁Triển	-10.9783
NLĐ	-10.9788
3/	-10.9807
▁dải	-10.9809
▁4.000	-10.9812
088	-10.9824
▁61	-10.9828
74	-10.9845
▁Ng	-10.9846
▁hồn	-10.9852
▁Cố	-10.9856
▁Ro	-10.9868
▁Grand	-10.9872
56	-10.9873
óc	-10.9873
▁3:	-10.9877
▁Mậu	-10.9898
▁vua	-10.9918
”;	-10.9934
52	-10.9937
mi	-10.994
▁El	-10.9945
▁Mầm	-10.9947
94	-10.9949
giảm	-10.9952
/1	-10.9953
54	-10.9958
ơ	-10.9958
▁gác	-10.9968
96	-10.9972
▁gục	-10.9974
▁trán	-10.9979
▁Ri	-10.9987
▁VietinBank	-10.9997
▁CĐV	-11.0006
▁bể	-11.0018
▁ốc	-11.002
gi	-11.0027
ter	-11.005
Việt	-11.0057
91	-11.0062
BHXH	-11.0064
.2015	-11.0067
97	-11.0069
▁Tae	-11.007
▁Air	-11.0071
▁TCty	-11.0073
▁0021000303088	-11.0082
▁04	-11.0082
▁ASIAD	-11.0101
▁tồi	-11.0101
▁67	-11.0104
▁(6	-11.0112
82	-11.0113
▁Lộ	-11.0114
▁Afghanistan	-11.0115
▁Củ	-11.0119
▁Vấn	-11.012
▁NSND	-11.0126
▁Buôn	-11.0133
93	-11.0133
ak	-11.0134
da	-11.0144
▁Ka	-11.0149
▁Viết	-11.0153
61	-11.0155
▁tuyết	-11.0172
▁cúm	-11.0187
▁Năng	-11.0196
Triệu	-11.0206
▁nghiêng	-11.021
▁Everton	-11.0214
▁AP	-11.0225
53	-11.0238
▁Ch	-11.0241
▁Mbappe	-11.0243
▁Jae	-11.0244
▁95	-11.0255
▁Pro	-11.0256
▁phế	-11.0262
▁Kạn	-11.0272
▁pin	-11.0277
iết	-11.0277
min	-11.0278
▁vớt	-11.0286
ed	-11.0289
▁of	-11.0291
PC	-11.0292
▁Phố	-11.0309
▁Young	-11.0318
▁91	-11.032
▁59	-11.0321
ẽ	-11.0328
ca	-11.0335
▁Old	-11.0347
▁quyển	-11.0348
▁Mái	-11.0356
▁mờ	-11.0363
▁3-0	-11.0375
▁kiệt	-11.038
ly	-11.038
▁giọt	-11.0401
▁đuôi	-11.0401
▁2030	-11.0416
▁2023	-11.0421
▁rủ	-11.0429
▁HĐLĐ	-11.0447
▁thạch	-11.0465
▁rỉ	-11.0474
▁Thấy	-11.0477
▁Đi	-11.0484
ul	-11.0486
▁hở	-11.0494
w	-11.0496
▁bồn	-11.0496
▁cạn	-11.0502
▁Chọn	-11.0511
as	-11.0512
▁Nạn	-11.0519
▁giặt	-11.0533
▁30.000	-11.0533
ho	-11.0535
▁Venezuela	-11.054
▁tạng	-11.0546
Bình	-11.0556
▁Thất	-11.0556
▁trâu	-11.0563
TW	-11.0565
ong	-11.0569
▁Uy	-11.0572
▁Pu	-11.0581
▁Bưu	-11.0589
▁súc	-11.0593
▁mâm	-11.06
▁g	-11.0601
▁BHTN	-11.062
▁2.3	-11.0648
▁2.5	-11.0656
Hạ	-11.066
▁Chúc	-11.0665
▁đầm	-11.0667
ay	-11.0677
▁Van	-11.0684
▁Lượng	-11.0689
▁Phim	-11.0691
▁Mẫu	-11.0695
▁rạp	-11.0697
Một	-11.0697
▁Hiến	-11.0701
Biên	-11.0705
▁đồi	-11.0707
sa	-11.0712
▁XIV	-11.0712
31	-11.0723
▁Da	-11.0733
▁Huân	-11.0734
▁set	-11.0755
▁Lisa	-11.0761
▁Shin	-11.078
▁40%	-11.0786
▁Sputnik	-11.0787
▁ruộng	-11.0787
ir	-11.079
▁9.	-11.0791
▁nướng	-11.0802
▁lặp	-11.0802
▁BTC	-11.0806
▁Phổ	-11.0807
▁Bầu	-11.0811
3)	-11.0814
▁lăng	-11.0816
▁nén	-11.0819
▁điền	-11.082
▁Viễn	-11.0825
▁ớt	-11.0833
▁Munich	-11.0847
▁dào	-11.0863
▁VPF	-11.0867
▁To	-11.0872
41	-11.0872
▁19008	-11.0873
▁Bo	-11.0873
▁măng	-11.0878
▁Cuba	-11.0879
▁Can	-11.0892
f	-11.0899
▁Trafford	-11.0908
▁Oman	-11.0909
xx	-11.0913
45:	-11.0913
▁Chế	-11.0916
▁ưa	-11.0924
▁60%	-11.0929
▁thuỷ	-11.0934
71	-11.0937
▁khe	-11.0945
▁CA	-11.096
▁Leicester	-11.0963
tấn	-11.0964
▁Cú	-11.0974
▁Ga	-11.0983
▁Sun	-11.0984
▁xỉ	-11.0985
▁Ta	-11.0991
▁mạn	-11.0992
▁Đảo	-11.1001
▁David	-11.1016
▁Seoul	-11.1016
▁John	-11.1022
▁nồi	-11.1024
▁thìa	-11.1026
▁4.5	-11.1034
▁lõi	-11.1063
em	-11.1063
▁Dortmund	-11.1063
▁cay	-11.1071
▁Re	-11.1071
4)	-11.1073
▁úng	-11.1086
▁vở	-11.1086
ka	-11.1088
▁xách	-11.1099
▁bar	-11.1105
▁TMCP	-11.1109
Đồng	-11.1112
é	-11.1114
51	-11.1126
.2020.	-11.1128
▁Mây	-11.1136
▁EVN	-11.1154
▁Tý	-11.1157
Vì	-11.1159
Em	-11.1162
▁đạc	-11.1164
ya	-11.1164
▁74	-11.1168
▁nuối	-11.1172
▁2015.	-11.1179
▁nhọc	-11.1181
st	-11.1187
▁thấu	-11.1188
▁VCK	-11.1188
▁HIV	-11.1204
▁nàng	-11.1205
xxx	-11.1211
▁Me	-11.1211
is	-11.1226
off	-11.1229
▁facebook	-11.1235
▁Oai	-11.1235
6)	-11.1237
▁Sport	-11.1242
▁tia	-11.1251
▁TH	-11.1257
▁Lu	-11.1262
▁mọc	-11.1267
tr	-11.1274
▁ngâm	-11.1274
3%	-11.1276
▁dối	-11.1283
▁Astra	-11.1299
▁Bảy	-11.1307
Ngày	-11.1309
▁trễ	-11.1322
▁cáp	-11.1323
▁Giai	-11.1326
▁vạn	-11.1331
ắp	-11.1333
▁kép	-11.1333
idane	-11.1354
▁đụng	-11.1355
▁Sum	-11.1356
ô	-11.1359
eneca	-11.1362
êu	-11.1366
▁côn	-11.1374
▁Min	-11.1376
▁đè	-11.1381
Về	-11.1382
▁show	-11.1382
▁sợi	-11.1383
▁khoăn	-11.1388
ke	-11.1399
▁Tìm	-11.14
▁Niê	-11.1401
▁Thiêm	-11.1403
số	-11.1409
▁Vang	-11.1411
▁Agribank	-11.1413
ic	-11.1421
▁view	-11.1425
▁rỡ	-11.1426
▁CR	-11.1427
▁showbiz	-11.1434
▁Ngược	-11.1443
▁tê	-11.1447
▁Lò	-11.1451
alo	-11.1454
81	-11.1459
▁Tri	-11.1462
▁loa	-11.1466
▁Áo	-11.1474
▁Dệt	-11.1475
▁băn	-11.1487
BS	-11.1488
▁đòn	-11.1491
▁James	-11.1499
▁Diệp	-11.1499
▁khéo	-11.1507
▁chửi	-11.1523
chi	-11.1534
so	-11.1535
▁đếm	-11.1544
▁Ole	-11.1546
▁Ngũ	-11.1548
▁2016.	-11.1557
thành	-11.1561
▁Diễm	-11.1566
▁66	-11.1575
▁hang	-11.158
▁Serie	-11.1595
▁Trực	-11.1605
▁gừng	-11.1605
▁Cận	-11.1613
▁xích	-11.1622
▁Heerenveen	-11.163
▁Mê	-11.1637
▁Thới	-11.1646
▁chip	-11.1649
▁11,	-11.1655
▁8.	-11.1656
ko	-11.1656
▁(4	-11.1661
▁Xương	-11.1671
▁hái	-11.168
228	-11.1685
▁lát	-11.1688
▁Khuyến	-11.1688
▁lôi	-11.1692
tuần	-11.1692
▁vành	-11.1701
Quỷ	-11.1709
thị	-11.1709
▁2.2	-11.1709
-0	-11.1712
▁xoáy	-11.1713
▁73	-11.1723
pe	-11.1724
▁Rẫy	-11.1729
▁130	-11.1734
▁4.0	-11.1734
/2020	-11.1744
▁1.0	-11.1747
▁1990	-11.1759
▁Bi	-11.1761
▁ngón	-11.1762
vùng	-11.1767
der	-11.1768
▁oan	-11.1776
Vi	-11.1777
▁12410001122556	-11.1781
▁2003	-11.1782
▁hạch	-11.1785
▁0-0	-11.1788
▁còi	-11.1788
▁TNMT	-11.1792
▁Jin	-11.1793
5)	-11.1802
▁chật	-11.1804
▁23.4	-11.1808
”...	-11.1808
ki	-11.1809
▁APEC	-11.1821
khủng	-11.1834
)...	-11.1845
▁Khởi	-11.1847
oC	-11.1849
▁chay	-11.1853
▁gầm	-11.1854
▁Big	-11.1857
▁1.200	-11.1863
▁5.9	-11.1864
▁lính	-11.1866
▁79	-11.1866
▁ĐTQG	-11.1871
▁Croatia	-11.1872
▁mẻ	-11.188
▁350	-11.1881
▁đệm	-11.1884
▁nghênh	-11.1888
▁Xô	-11.1894
▁chậu	-11.1896
▁dũng	-11.1914
▁69	-11.1917
▁ATVSLĐ	-11.1935
▁15.9	-11.1935
ăn	-11.1939
▁Mạch	-11.1945
▁golf	-11.195
▁soi	-11.1951
▁canxi	-11.1956
▁Trưa	-11.1964
▁Le	-11.1966
▁Cảm	-11.1969
▁mỏng	-11.1975
Vũng	-11.1976
▁vạch	-11.199
▁Ar	-11.1992
▁v	-11.2
▁van	-11.2021
▁rao	-11.2022
▁truyện	-11.2033
▁115	-11.2039
▁tháp	-11.2058
8%	-11.2065
▁sáp	-11.2067
▁(5	-11.2067
▁Kane	-11.2072
▁7.	-11.2073
▁xưng	-11.2075
▁California	-11.2076
âm	-11.2079
bo	-11.2086
ov	-11.2098
▁đố	-11.2099
▁2.8	-11.21
ì	-11.2103
▁hoành	-11.2106
▁Delta	-11.211
▁(30	-11.2112
okovic	-11.2118
▁nghiệt	-11.2119
ư	-11.2119
▁Ji	-11.2132
The	-11.2153
▁3.4	-11.2159
▁TWICE	-11.2164
▁thịnh	-11.2174
▁Trúc	-11.2179
▁Yêu	-11.2183
▁85	-11.2197
▁Chuyến	-11.22
▁im	-11.22
▁1,3	-11.2201
▁Giáp	-11.2201
▁tú	-11.2202
▁Klopp	-11.2205
▁Khám	-11.2208
▁Ki	-11.2208
chưa	-11.2212
chiếm	-11.2212
▁QR	-11.2216
ry	-11.2219
ax	-11.2222
▁bấm	-11.2222
▁Vina	-11.2226
▁manh	-11.2231
▁siết	-11.2231
▁89	-11.2249
▁r	-11.2258
Theo	-11.2266
▁Chiểu	-11.2267
▁Khanh	-11.2268
▁Máy	-11.227
9)	-11.2272
thùng	-11.2273
▁rộn	-11.2277
▁khoe	-11.2283
▁nhậu	-11.2286
7%	-11.2288
▁thấm	-11.2292
▁Lăng	-11.2293
▁Mike	-11.2301
8)	-11.2313
▁2007	-11.2317
▁6.5	-11.2335
▁rực	-11.2336
▁Harry	-11.2346
▁rò	-11.2354
"-	-11.236
▁lội	-11.2363
▁5.5	-11.2364
▁khan	-11.2366
dy	-11.2387
▁2%	-11.2389
▁SC	-11.2393
▁(28	-11.2396
▁Đam	-11.2407
▁2011	-11.2408
▁Nhì	-11.2412
bi	-11.2412
▁trơn	-11.2414
▁15.5	-11.2417
▁Phường	-11.242
Với	-11.2424
▁56,	-11.2428
▁chôn	-11.2433
▁Lòng	-11.2443
▁15.10	-11.2448
▁thiêu	-11.2449
▁rốt	-11.2452
▁Quán	-11.2455
▁Momo	-11.2461
▁Cây	-11.2461
▁Johnson	-11.247
▁2002	-11.2474
▁Tu	-11.2475
▁bàng	-11.2476
▁07	-11.2477
▁31.3	-11.2479
▁Se	-11.2482
▁giò	-11.2483
Tr	-11.2485
▁FA	-11.2491
▁NHNN	-11.2496
id	-11.2507
▁nụ	-11.2509
▁kẹo	-11.2514
▁văng	-11.2518
▁86	-11.2523
▁Rạng	-11.2523
Th	-11.2528
▁ráp	-11.2532
▁15.4	-11.2533
▁08	-11.2543
▁trinh	-11.2547
▁0-1	-11.2549
▁xót	-11.2551
▁Musk	-11.2552
▁nh	-11.2557
▁Đoạn	-11.2562
ti	-11.2567
▁buông	-11.2574
▁khoang	-11.2576
▁CCCD	-11.2586
▁Phạt	-11.2587
▁108	-11.2609
▁Ben	-11.2609
▁Vợ	-11.2617
▁lui	-11.2624
TC	-11.2632
▁kiềm	-11.2632
à	-11.2642
Điều	-11.265
▁3.9	-11.2664
▁buồng	-11.2665
ang	-11.2668
▁hiếu	-11.2668
▁kè	-11.2675
▁Daily	-11.2677
▁Loại	-11.2678
▁25%	-11.2685
▁15.3	-11.269
▁Han	-11.2702
▁hé	-11.2707
hắp	-11.2714
▁27.4	-11.2719
▁nhường	-11.2723
lu	-11.2731
▁Lionel	-11.2732
▁Tác	-11.2737
▁vú	-11.2747
▁Đậu	-11.276
Buôn	-11.276
▁chéo	-11.2769
▁bút	-11.2771
▁link	-11.2782
▁22.4	-11.279
▁ATM	-11.2794
▁Mưa	-11.2799
▁rẽ	-11.2806
▁6.1	-11.2814
▁gũi	-11.2815
▁Khương	-11.2815
Trước	-11.2816
▁đúc	-11.2825
▁nghẽn	-11.2834
▁2006	-11.2851
▁phơi	-11.2852
▁3.8	-11.2853
ek	-11.2865
▁chúa	-11.2871
▁29.4	-11.2877
▁đùa	-11.288
▁sụp	-11.289
▁LĐ	-11.2891
▁3.6	-11.2898
▁7.5	-11.2902
▁Tan	-11.2904
▁99	-11.2907
Gia	-11.2908
▁31.7	-11.2914
no	-11.292
▁Moon	-11.2924
ên	-11.2928
▁Đàn	-11.2929
▁xôi	-11.2932
ard	-11.2933
om	-11.2934
▁đớn	-11.2936
▁Villa	-11.2948
▁Giáng	-11.2949
2014	-11.2949
át	-11.2953
▁Tinh	-11.2958
land	-11.2961
.2018.	-11.2962
▁hit	-11.2968
▁(7	-11.2979
wa	-11.2982
▁International	-11.2983
▁chép	-11.2983
▁dở	-11.2984
▁Phả	-11.2991
ập	-11.2993
▁Ngôi	-11.2997
▁Hưởng	-11.3003
▁FPT	-11.3009
đã	-11.3015
▁qui	-11.3034
▁Chư	-11.3043
▁77	-11.3045
6.	-11.3045
▁Vấp	-11.3054
ức	-11.3062
▁mồi	-11.3063
▁Go	-11.3079
hẳng	-11.3082
▁3-1	-11.3083
ce	-11.3085
▁nhạt	-11.3087
▁ứ	-11.3087
Từ	-11.309
▁Bắt	-11.3094
▁thục	-11.3094
▁Cúc	-11.3095
▁2.6	-11.3096
DN	-11.3098
▁LS	-11.3102
.2022.	-11.3104
▁thám	-11.3106
▁Mẫn	-11.3107
▁(29	-11.3114
▁túng	-11.3116
▁Lebanon	-11.3116
▁huỷ	-11.3116
▁tụt	-11.3121
gồm	-11.3127
▁Đồ	-11.3132
▁88	-11.3133
▁Kia	-11.3137
▁Giêng	-11.3145
▁Nguyệt	-11.3145
▁Pakistan	-11.3154
▁quầy	-11.3154
▁31.5	-11.3155
▁TV	-11.3156
▁Khuê	-11.3157
be	-11.3158
▁tour	-11.3162
▁Bé	-11.3168
▁bọn	-11.317
▁(25	-11.3174
▁Hè	-11.3176
Hội	-11.3195
▁tráng	-11.3197
▁ĐBSCL	-11.3205
cổ	-11.3207
...)	-11.3212
▁Index	-11.3219
5%	-11.3219
▁Lầu	-11.3221
▁1.10	-11.3222
▁2.7	-11.3233
▁lặn	-11.324
▁nạ	-11.3246
▁Toản	-11.3251
ga	-11.3252
▁ngô	-11.3254
▁Dùng	-11.3258
▁28.7	-11.326
▁28.2	-11.3261
▁Vaccine	-11.3261
▁11.	-11.3267
▁(27	-11.3268
▁76	-11.3269
▁khoan	-11.3269
▁QLTT	-11.327
▁Chuẩn	-11.327
▁the	-11.3272
ớc	-11.3275
▁900	-11.3277
▁4.4	-11.3292
-19;	-11.3303
▁ập	-11.3317
▁cành	-11.3325
▁SLNA	-11.3331
▁2004	-11.3333
-20	-11.3334
▁10.5	-11.3335
▁(24	-11.3335
▁sáu	-11.3348
▁chê	-11.335
li	-11.3353
ah	-11.3355
00196	-11.3358
▁(26	-11.3367
▁Thật	-11.3369
▁SE	-11.3373
▁heroin	-11.3377
▁1150	-11.338
▁Ia	-11.3383
▁Đợt	-11.3389
▁cua	-11.3399
▁Ali	-11.3403
0,	-11.3405
▁Bruno	-11.3416
Huế	-11.3419
▁Chống	-11.3422
▁CEO	-11.3427
▁Nhuận	-11.3446
ẩy	-11.3446
▁Khả	-11.3455
▁30.6	-11.3456
▁(8	-11.3463
▁kit	-11.3463
▁23.5	-11.3467
▁chán	-11.3475
▁Hào	-11.3482
▁Luân	-11.3485
TV	-11.3489
▁160	-11.3492
▁4.3	-11.3504
▁đạm	-11.3505
▁Cristiano	-11.3506
▁Sam	-11.3507
▁Si	-11.3511
▁nguội	-11.3515
▁cắn	-11.3515
▁(10	-11.3516
▁phiền	-11.3526
▁Elon	-11.3535
▁8.3	-11.3548
▁11.5	-11.3554
▁Instagram	-11.3555
▁US	-11.3555
▁(18	-11.3557
▁Thai	-11.3559
▁VHTTDL	-11.3559
▁tràng	-11.3563
▁Ô	-11.3564
▁Vitamin	-11.3565
▁vứt	-11.3565
▁quạt	-11.3565
▁2.1	-11.357
▁Won	-11.357
▁Kho	-11.357
▁lách	-11.357
▁3.2	-11.3581
ò	-11.3582
▁CH	-11.3582
▁viếng	-11.3585
▁3,5	-11.3587
▁PCR	-11.3587
▁GDP	-11.3593
▁Lệnh	-11.3608
▁đành	-11.3609
▁nhé	-11.3611
▁lún	-11.3614
▁GBP	-11.3615
▁Đỏ	-11.3615
▁Móng	-11.3617
▁MU	-11.3623
▁15.000	-11.3626
▁gas	-11.3635
hốt	-11.3636
▁bôi	-11.3637
▁sưng	-11.3642
▁Paul	-11.3647
▁hãi	-11.3655
▁Rạch	-11.3655
▁024.39232756	-11.3665
▁400.000	-11.3668
▁Điệp	-11.3675
▁VAR	-11.3676
▁9.3	-11.3677
▁23.8	-11.3692
Nam	-11.3694
▁phì	-11.3694
▁1.12	-11.3696
▁140	-11.3701
các	-11.3702
▁4:	-11.3703
▁tát	-11.3706
▁việt	-11.3708
▁6.000	-11.3712
ú	-11.3717
▁chiên	-11.372
57555	-11.3725
▁Uzbekistan	-11.3736
▁Băng	-11.3737
shi	-11.3742
▁8.5	-11.3754
▁quật	-11.3756
-4	-11.3758
▁10.10	-11.3758
▁9.5	-11.3761
tin	-11.3769
ru	-11.3769
ền	-11.3783
▁16.4	-11.3788
▁khốc	-11.3797
▁4.1	-11.3806
▁ôxy	-11.3807
gr	-11.3808
7.	-11.3817
▁đùi	-11.3817
uỳ	-11.382
▁15.6	-11.3828
▁96	-11.385
▁l	-11.3854
▁0,5	-11.3858
▁Nghiệp	-11.3858
▁Hợi	-11.3859
▁ch	-11.3862
▁Huawei	-11.3868
▁VKSND	-11.3871
za	-11.3884
▁1,1	-11.3892
Tổng	-11.3899
▁98	-11.3899
▁Xác	-11.3904
▁1999	-11.391
▁đoan	-11.3914
▁xi	-11.3918
▁Alibaba	-11.392
▁ráo	-11.392
▁rắc	-11.392
▁Mo	-11.3922
▁Camp	-11.3926
▁Guardiola	-11.393
▁ngắm	-11.393
Tháng	-11.3935
▁SN	-11.3945
đoạn	-11.3945
▁Newcastle	-11.3951
▁Dĩ	-11.3951
▁XI	-11.3953
▁chùm	-11.3961
công	-11.3967
▁VĐV	-11.3972
▁Bill	-11.3973
▁150.000	-11.3978
▁phà	-11.4
▁Thẩm	-11.4003
▁Trình	-11.4005
▁Ko	-11.4006
▁đắn	-11.4012
▁vóc	-11.4014
▁24-27	-11.4014
▁5.8	-11.402
▁má	-11.4027
▁BĐ	-11.403
▁15%	-11.4031
ốt	-11.4034
▁23-26	-11.4035
▁dãy	-11.4038
▁6.4	-11.4038
▁Vườn	-11.4039
▁nhí	-11.4041
▁ngỏ	-11.4045
là	-11.4048
▁ao	-11.4048
▁tựa	-11.405
/2019	-11.405
Do	-11.406
LĐLĐ	-11.4061
▁hao	-11.4063
▁thối	-11.4066
▁dệt	-11.4066
▁Xá	-11.4066
7.000	-11.4075
▁Bán	-11.4076
go	-11.4082
▁Moderna	-11.4087
▁kíp	-11.4088
LĐ	-11.4091
ana	-11.4095
▁25.7	-11.4096
▁8.7	-11.4096
▁Fox	-11.4098
▁22.7	-11.4099
▁26.7	-11.4102
▁bưởi	-11.4108
▁giằng	-11.4108
▁11.9	-11.4109
▁24.2	-11.4119
▁20.4	-11.4123
▁Lukaku	-11.4129
▁Hay	-11.413
▁Cải	-11.4131
▁1992	-11.4131
Nhà	-11.4138
▁Ja	-11.4145
▁nhọn	-11.4151
▁1997	-11.4153
đường	-11.4156
um	-11.4159
▁Vượng	-11.4161
▁Tố	-11.4167
▁xì	-11.4171
▁quấy	-11.4172
▁lọ	-11.4176
▁71	-11.4187
po	-11.4192
▁Sách	-11.4193
▁Lại	-11.4194
▁81	-11.4196
▁5.6	-11.4197
out	-11.4199
▁Bale	-11.4201
▁nhát	-11.4203
▁1982	-11.4208
học	-11.421
▁cóc	-11.4215
▁cỗ	-11.4221
▁14.2	-11.4222
▁gậy	-11.4224
.2019.	-11.423
▁Nou	-11.4233
▁bứ	-11.4237
se	-11.4241
▁kali	-11.4246
▁1993	-11.4246
▁40.000	-11.4248
▁20.1	-11.4251
▁Chạp	-11.4256
▁31.10	-11.4258
▁tha	-11.4261
ả	-11.4275
▁bỗng	-11.4278
▁Suối	-11.4278
op	-11.4283
▁3.1	-11.4284
▁rụi	-11.4288
▁rãnh	-11.4289
▁Mười	-11.4289
io	-11.4292
▁5.4	-11.4299
▁Sữa	-11.43
ip	-11.4305
▁(23	-11.4307
▁luộc	-11.4311
▁84	-11.4311
▁2-2	-11.4312
am	-11.4315
-9	-11.4322
▁1998	-11.4322
ian	-11.4327
▁30.9	-11.4329
▁18.3	-11.433
▁đúp	-11.4331
▁NH	-11.4333
▁30.3	-11.4348
▁rộ	-11.435
▁tùng	-11.4354
yong	-11.4358
▁19.5	-11.4362
▁nhặt	-11.4364
▁mini	-11.4364
▁Seo	-11.4365
▁nộ	-11.4373
▁15.12	-11.4374
▁Kha	-11.4375
4.000	-11.4378
▁2021-2022	-11.4379
sửa	-11.4383
▁Mercedes	-11.4385
▁phiến	-11.4386
ắt	-11.439
Hen	-11.4406
▁rổ	-11.4407
▁14.4	-11.4414
▁Pi	-11.4416
▁Hyun	-11.442
ster	-11.442
▁7.3	-11.442
▁26.3	-11.4421
▁16.9	-11.4424
▁15.8	-11.4425
3.000	-11.4429
▁mèo	-11.4429
ara	-11.4431
▁xịt	-11.444
▁lưỡi	-11.444
▁24/24	-11.4441
-2,	-11.4442
bu	-11.4444
▁(9	-11.4449
nguyên	-11.4459
▁15.7	-11.4466
-8	-11.4467
▁Khiêm	-11.4467
▁20.7	-11.447
▁Cầm	-11.4472
▁ngoan	-11.4473
▁rể	-11.4473
▁hước	-11.4473
▁Đằng	-11.4483
▁8.2	-11.4485
làm	-11.4486
▁15.11	-11.4491
Bắc	-11.4491
ge	-11.4496
▁MB	-11.4499
▁10.2	-11.4501
▁nắp	-11.4505
▁Bãi	-11.4506
pa	-11.4507
▁Star	-11.4518
ải	-11.452
▁29.1	-11.4524
mỗi	-11.4525
▁13.5	-11.453
▁12.6	-11.4534
IC	-11.4535
ai	-11.4543
▁múa	-11.4549
▁Red	-11.4554
▁MobiFone	-11.4561
▁7.2	-11.4562
/2017	-11.4563
▁1,6	-11.4567
▁Jose	-11.4569
▁Amazon	-11.4571
.000.000	-11.4578
▁Tràng	-11.4582
▁Phóng	-11.4583
ran	-11.4586
▁AC	-11.459
▁Youtube	-11.4593
Đoàn	-11.4601
▁Kiev	-11.4604
▁chưng	-11.4607
▁Phối	-11.4609
▁cọ	-11.4609
▁khuất	-11.461
▁Post	-11.4623
▁25.3	-11.4623
▁12.10	-11.4624
▁h	-11.4624
▁Tuất	-11.4627
ey	-11.4634
GDĐT	-11.4639
Năm	-11.4646
▁1996	-11.465
▁Pha	-11.4656
▁27.1	-11.4657
trừ	-11.4659
▁dỗ	-11.4661
▁sườn	-11.4662
du	-11.4663
đợt	-11.4668
ow	-11.4672
▁3.7	-11.4679
đối	-11.4679
7)	-11.468
▁léo	-11.4682
ó	-11.4685
▁Los	-11.4689
▁Hoan	-11.4692
▁cởi	-11.4694
▁31.	-11.4694
▁Đẫy	-11.4704
nhà	-11.4705
▁Bu	-11.4717
▁Obama	-11.4727
▁Hới	-11.4728
▁Chữ	-11.4732
▁10.3	-11.4733
CDC	-11.4736
▁lữ	-11.4741
ut	-11.4742
▁ướt	-11.4742
▁28.1	-11.4746
▁răn	-11.4748
sta	-11.4749
▁29.3	-11.4752
▁21.2	-11.4758
▁Bloomberg	-11.4761
▁chuộng	-11.4761
▁Techcombank	-11.4763
▁7.9	-11.4765
ab	-11.4768
▁hiển	-11.4772
▁Liệu	-11.4772
▁UBKT	-11.478
1.000	-11.478
▁Hòn	-11.4783
▁Sky	-11.4784
▁Lãng	-11.4789
▁vuông	-11.4794
▁Quyên	-11.4795
▁Roma	-11.48
▁gạt	-11.4806
tan	-11.4807
▁Salah	-11.4807
lan	-11.4813
▁2.0	-11.4814
-400	-11.4821
▁Thỏa	-11.4829
▁20.2	-11.483
▁14.3	-11.4831
Con	-11.4836
▁KSND	-11.484
▁Phu	-11.4852
▁tống	-11.4853
VFF	-11.486
▁vượng	-11.4862
▁mắm	-11.4863
▁AS	-11.487
▁170	-11.4881
▁Am	-11.4894
Bệnh	-11.4894
▁Ju	-11.4899
▁tạ	-11.4906
▁sen	-11.4911
▁Góc	-11.4911
/2018	-11.4914
▁Đúng	-11.4916
▁mịn	-11.492
▁Bin	-11.4929
▁78	-11.4929
▁Cụm	-11.4937
▁mò	-11.494
▁Bundesliga	-11.4942
▁(21	-11.4952
▁Jung	-11.4953
▁SpaceX	-11.4954
▁9.4	-11.4963
PCR	-11.4963
▁83	-11.4964
khu	-11.4967
SA	-11.4968
▁bóp	-11.497
▁đế	-11.4994
▁bong	-11.4998
▁3-4	-11.5
▁Be	-11.5004
▁8.8	-11.5018
▁Nishino	-11.5022
▁giấm	-11.5022
▁1,4	-11.5027
BYT	-11.5037
▁Tuyền	-11.5041
▁HOSE	-11.5043
▁28.4	-11.5044
▁Robert	-11.5044
▁internet	-11.5046
▁Đang	-11.5051
▁(31	-11.5054
▁Lang	-11.5055
▁play	-11.5055
▁30.1	-11.5065
▁Giữa	-11.507
▁(17	-11.5077
WHO	-11.5078
▁bùn	-11.5078
▁7.8	-11.5078
▁20.3	-11.5082
▁hot	-11.5084
▁7.7	-11.5087
▁20.9	-11.5094
ổ	-11.51
▁2000	-11.5102
▁livestream	-11.5104
rợ	-11.5105
▁6.2	-11.5109
▁1,8	-11.5114
ợ	-11.5114
▁đính	-11.5127
▁nha	-11.5127
Thủ	-11.5128
su	-11.5132
▁16.3	-11.5132
ker	-11.5136
▁82	-11.514
▁Conte	-11.5142
▁26.4	-11.5148
▁Vua	-11.5152
▁Nơi	-11.5155
XH	-11.5157
▁Chấn	-11.5162
▁6.3	-11.5163
▁Mông	-11.5166
▁Eximbank	-11.5174
▁rệt	-11.5174
ner	-11.5176
▁22.9	-11.5181
▁kiều	-11.5185
▁khao	-11.5185
▁HoSE	-11.5189
▁Rồng	-11.519
▁Cờ	-11.5191
▁17.7	-11.5192
▁5.7	-11.5194
▁gặt	-11.5197
▁phao	-11.5198
-5	-11.5199
▁13.10	-11.5199
▁11.11	-11.5207
CC	-11.5208
▁Ru	-11.5214
▁Đá	-11.5219
▁30.7	-11.5222
▁Kh	-11.5227
▁bẫy	-11.5232
▁kh	-11.5237
▁Chuyển	-11.5237
▁chọc	-11.5245
cho	-11.5246
▁Tuổi	-11.5248
▁9.8	-11.5252
▁12.4	-11.5253
▁k	-11.5255
ok	-11.5262
▁Giàng	-11.5268
▁1988	-11.5269
▁mộc	-11.5271
▁thèm	-11.528
▁đấm	-11.528
▁Pleiku	-11.528
ờ	-11.5282
ml	-11.5285
xe	-11.5288
▁xen	-11.5288
ố	-11.5289
▁thầm	-11.5292
▁đun	-11.5292
▁Bank	-11.5293
▁22.8	-11.5293
▁4.9	-11.5297
▁p	-11.5298
▁Bangkok	-11.5305
▁Dư	-11.531
án	-11.5314
▁16.10	-11.5317
▁11.10	-11.5319
▁31.1	-11.5324
è	-11.5325
▁12.3	-11.5328
▁24.4	-11.5333
▁Po	-11.5335
▁25.11	-11.5336
▁solo	-11.5338
▁Đôi	-11.5341
▁6.7	-11.5352
▁220	-11.5353
▁Car	-11.5354
8.000	-11.5355
háo	-11.5363
▁Lân	-11.5364
▁17.5	-11.5368
▁kiêng	-11.5369
ạ	-11.5383
▁Cậu	-11.5384
▁đặn	-11.5387
▁sọ	-11.5387
▁xùm	-11.5388
chủ	-11.5389
▁Tên	-11.539
▁1%	-11.5401
▁28.3	-11.5402
▁7.4	-11.5408
▁mác	-11.5412
▁8.4	-11.5414
ph	-11.5423
▁Mong	-11.5427
▁Daniel	-11.5428
▁bóc	-11.543
▁xoắn	-11.5435
▁Xăng	-11.5435
▁1991	-11.5437
▁JPY	-11.5439
▁Bão	-11.5444
▁Incheon	-11.5447
▁nhăn	-11.5449
▁93	-11.5454
▁19.7	-11.5454
▁13.4	-11.5458
▁2023.	-11.5458
▁vấp	-11.5459
▁2001	-11.5462
▁Chile	-11.5462
▁xay	-11.5464
▁xoa	-11.5468
▁rách	-11.5474
▁Ne	-11.5476
6%	-11.5482
TB	-11.5482
▁diesel	-11.5483
▁Tim	-11.5486
ỗ	-11.5486
▁thánh	-11.5491
▁mi	-11.5492
2.000	-11.5495
▁metro	-11.5495
▁Kitco	-11.5496
▁ơi	-11.5496
▁quát	-11.5506
▁8.6	-11.5511
▁CT	-11.5514
▁3.11	-11.5527
▁gam	-11.5529
▁Ủng	-11.5531
▁sạc	-11.5534
▁5.1	-11.5534
▁(22	-11.5543
▁Lạp	-11.5557
▁Yu	-11.5559
▁chìa	-11.556
▁Colombia	-11.5568
▁22.3	-11.5571
▁Đệ	-11.5572
ầy	-11.5577
▁gram	-11.5578
▁sỏi	-11.558
▁Kính	-11.5582
▁25.2	-11.5584
▁Lão	-11.5586
▁vã	-11.5586
▁nhức	-11.5593
▁87	-11.5594
▁đèo	-11.5594
2%	-11.5601
▁Hazard	-11.5605
▁Michael	-11.5605
▁rụng	-11.5605
-35	-11.5607
▁Wi	-11.5613
▁VI	-11.5615
▁hoài	-11.5616
▁105	-11.5616
▁4.2	-11.5617
▁1986	-11.5621
▁17.1	-11.5624
lin	-11.5627
▁19.11	-11.5627
▁gộp	-11.5629
▁11.3	-11.5639
▁18.5	-11.565
Hương	-11.5654
▁Hạng	-11.5658
▁7.000	-11.566
▁Côn	-11.5661
▁Nho	-11.5674
▁26.2	-11.5677
▁xám	-11.5678
▁bộc	-11.5684
▁đệ	-11.5685
▁Lời	-11.5685
▁xí	-11.5685
kh	-11.5687
▁7.1	-11.5691
▁Tịnh	-11.5694
ôn	-11.57
▁Hộ	-11.5705
▁Đen	-11.5708
▁đinh	-11.571
▁25.4	-11.5712
▁muỗi	-11.5715
▁chui	-11.5721
▁(15	-11.5727
▁quỳ	-11.5728
▁đống	-11.5729
▁Thao	-11.5729
KH	-11.5734
▁1,7	-11.5738
▁11.6	-11.5739
An	-11.5743
▁chiết	-11.5745
xin	-11.5746
▁21.4	-11.5748
phút	-11.5753
▁Super	-11.5756
▁128	-11.576
ev	-11.576
▁22.2	-11.5767
by	-11.5771
▁2.4	-11.5772
one	-11.5775
▁Sevilla	-11.5777
▁28.10	-11.5779
▁doạ	-11.5782
ếp	-11.5782
▁ĐBQH	-11.5783
▁phe	-11.5784
▁17.4	-11.5797
▁450	-11.5802
▁VKS	-11.5807
▁9.2	-11.581
lần	-11.5815
▁ê	-11.5816
▁Hân	-11.5817
▁30.10	-11.5818
▁Khẩu	-11.582
▁Ford	-11.5822
▁Nậm	-11.5827
▁Chùa	-11.5827
NHNN	-11.5828
▁9.7	-11.5831
▁massage	-11.584
▁ngất	-11.5852
–	-11.5853
▁Hảo	-11.5853
▁Quách	-11.5854
5,	-11.5856
Tuy	-11.5859
▁chuông	-11.5866
Trường	-11.5866
▁George	-11.5866
▁Bổ	-11.5868
Ông	-11.5868
▁đắng	-11.5892
▁125	-11.5907
▁vùi	-11.5915
▁mập	-11.5916
▁17.3	-11.5919
▁Ni	-11.5927
▁hiền	-11.5928
▁Dollar	-11.5928
▁Mar	-11.5933
▁29.7	-11.5936
ù	-11.5938
▁hận	-11.594
▁Tạo	-11.5945
▁Tuân	-11.5953
▁Lô	-11.5958
▁19.8	-11.5966
▁10.9	-11.5973
▁21.7	-11.5973
▁Tai	-11.5975
▁hoán	-11.5978
AS	-11.5978
▁lùm	-11.5981
▁Blues	-11.5988
▁116	-11.5996
ley	-11.5996
▁10.1	-11.6004
▁lê	-11.6007
▁Thú	-11.6012
▁robot	-11.6017
▁Đắc	-11.6017
▁4.11	-11.6019
▁Nguy	-11.6021
▁Mail	-11.6025
▁He	-11.6026
tra	-11.6035
4.	-11.6036
▁10.4	-11.6037
▁28.8	-11.6037
ren	-11.6042
%.	-11.6043
▁hoả	-11.6044
▁nhậ	-11.6047
▁10.7	-11.6054
▁bã	-11.6054
▁23.9	-11.6058
▁phẫn	-11.6068
ers	-11.6071
▁khái	-11.6078
▁4.7	-11.6083
▁97	-11.6084
▁Tang	-11.6092
▁VinFast	-11.6093
▁gấu	-11.6093
▁đũa	-11.6093
▁Gates	-11.6093
▁trũng	-11.6094
▁(12	-11.6095
%	-11.6101
nam	-11.6103
▁Nadal	-11.6106
▁hàn	-11.612
Bluezone	-11.6121
BTC	-11.6127
fi	-11.6137
▁8.9	-11.6138
▁Wall	-11.6138
▁13.3	-11.6147
▁ách	-11.6148
▁CMND	-11.615
2/	-11.615
▁17.9	-11.6151
cha	-11.6152
▁TR	-11.6154
▁hẻm	-11.6158
▁Dữ	-11.6159
▁tạt	-11.6161
▁Hae	-11.6167
cựu	-11.6173
▁Tuchel	-11.6184
ik	-11.619
▁toa	-11.6192
ot	-11.6196
▁Florida	-11.6197
▁No	-11.6197
▁bẩm	-11.6197
▁Lái	-11.6199
▁10.6	-11.62
▁16.11	-11.6209
Đại	-11.6212
▁Nhiệm	-11.6214
▁31.12	-11.6215
▁khuya	-11.6217
▁14.11	-11.6219
▁cẩu	-11.6223
▁15.2	-11.6224
sau	-11.6224
▁lẩ	-11.6224
ex	-11.6225
▁cúc	-11.6226
▁Bang	-11.6232
▁Khoá	-11.6234
▁xoài	-11.6236
▁16.7	-11.6239
▁18.4	-11.6246
?".	-11.6247
▁18.8	-11.6248
▁ghen	-11.6251
ber	-11.6251
▁Martin	-11.6252
▁chảo	-11.6253
TLĐ	-11.6256
▁tẩu	-11.6262
▁20.5	-11.6264
▁ATGT	-11.6268
si	-11.6274
▁nilon	-11.6274
▁lướt	-11.6275
cùng	-11.6277
▁4-0	-11.6286
▁14.8	-11.6286
2012	-11.6287
▁Thomas	-11.6288
▁22.6	-11.6291
ni	-11.6293
ồng	-11.6295
MA	-11.6296
▁6.12	-11.63
▁tuất	-11.6302
▁25.10	-11.6302
▁17.2	-11.6303
▁Land	-11.6304
8.	-11.6308
▁mày	-11.6311
▁TX	-11.6311
▁9.1	-11.6312
▁vặt	-11.6314
▁quất	-11.6315
▁bội	-11.6317
▁yến	-11.6319
ạp	-11.632
▁ngẫu	-11.6327
▁thiêng	-11.6333
all	-11.6336
▁Hu	-11.6337
▁Czech	-11.634
▁Tuệ	-11.6341
▁700.000	-11.6343
▁5.2	-11.6345
▁Phấn	-11.6354
▁1989	-11.6354
▁Mu	-11.6357
▁25.8	-11.6367
▁22.10	-11.6371
▁95%	-11.638
▁10.11	-11.6381
▁27.8	-11.6383
▁16.8	-11.6385
▁Nghe	-11.6385
▁29.5	-11.6389
me	-11.6392
▁14.10	-11.6393
▁Pompeo	-11.6393
▁mương	-11.6394
ắc	-11.6401
▁30.5	-11.6406
▁Thuỳ	-11.6407
địa	-11.641
▁Dinh	-11.6411
▁26.8	-11.6412
2010	-11.6419
wan	-11.642
HS	-11.6422
▁Billboard	-11.6433
MT	-11.6434
▁13.9	-11.6447
▁12.7	-11.6449
▁1-3	-11.6453
▁Tốt	-11.6453
▁24.8	-11.6456
▁dạt	-11.6456
▁Bè	-11.6463
▁Mark	-11.6464
▁quế	-11.6464
▁Nhàn	-11.6465
▁(16	-11.6467
ap	-11.6469
▁17.10	-11.6472
▁Khảo	-11.6475
Thời	-11.6476
▁Trác	-11.6479
▁16.2	-11.648
▁Toà	-11.6482
▁11.2	-11.6484
▁(14	-11.6484
▁16.6	-11.6484
Đó	-11.6486
ler	-11.6486
▁lì	-11.6497
▁25-28	-11.65
▁Ung	-11.6507
sk	-11.651
▁Ph	-11.6511
▁Georgia	-11.6513
▁19.4	-11.6516
▁27.2	-11.6517
▁chọi	-11.6518
▁18.9	-11.652
▁15.1	-11.6529
▁28.5	-11.6537
▁29.10	-11.6538
9.000	-11.6538
ve	-11.6539
▁tóm	-11.654
▁Alexander	-11.654
ủ	-11.654
▁láng	-11.6543
up	-11.6548
▁Thuật	-11.6553
▁20.12	-11.6555
▁lộc	-11.6562
▁gõ	-11.6567
Hoa	-11.6568
▁Wales	-11.658
▁Hường	-11.6582
▁thạc	-11.6584
▁Kar	-11.6585
6.000	-11.6586
▁1.000.000	-11.6597
Long	-11.6601
▁94	-11.6602
▁75%	-11.6609
▁FDI	-11.6627
▁13.6	-11.6629
▁Hari	-11.6633
▁fanpage	-11.6634
Phú	-11.6635
▁ĐV	-11.6636
▁khang	-11.6637
▁cabin	-11.6638
▁tưới	-11.6639
Để	-11.664
▁HNX	-11.664
▁(11	-11.6645
▁Gu	-11.6647
▁tặc	-11.6648
ze	-11.6649
▁xướng	-11.6662
▁Trâm	-11.6662
▁9.9	-11.6663
LĐTT	-11.6664
▁LD	-11.6671
men	-11.6672
▁(13	-11.6672
▁Xử	-11.6675
sen	-11.6677
▁4,5	-11.6684
▁25.5	-11.6687
▁HDBank	-11.6689
▁Bar	-11.6698
est	-11.6699
▁19.9	-11.67
▁Đôn	-11.6706
9.	-11.6708
▁Trải	-11.671
▁tò	-11.6713
▁Đảm	-11.6716
▁0-2	-11.6718
▁Timor	-11.6718
▁vĩnh	-11.6719
▁17.6	-11.672
-7	-11.6724
▁Làng	-11.6726
▁6.6	-11.6731
▁Tám	-11.6732
▁Cống	-11.6732
▁11.4	-11.6733
ếm	-11.6743
▁Thân	-11.6745
▁26.5	-11.6753
▁đục	-11.6757
▁hóc	-11.6757
▁26.6	-11.6758
/10	-11.6762
▁rong	-11.6765
▁Dong	-11.6767
▁Palace	-11.6771
Nha	-11.6775
▁Mô	-11.6777
▁5.11	-11.6783
▁Kremlin	-11.6785
▁rớt	-11.6785
ate	-11.679
▁20.11	-11.6795
▁mộng	-11.6796
▁8.10	-11.6797
▁côi	-11.68
▁30.8	-11.6807
▁8.11	-11.6807
▁11.1	-11.6816
▁3.3	-11.6816
▁18.7	-11.682
▁21.10	-11.6825
▁Kông	-11.6832
▁Bezos	-11.684
▁55,	-11.6848
Bà	-11.6849
KCN	-11.6852
▁18.10	-11.6852
▁Palestine	-11.6854
▁18.1	-11.6875
▁17.8	-11.6879
▁phẳng	-11.6882
▁Liệt	-11.6882
▁Abe	-11.6895
▁giếng	-11.6895
▁Thưởng	-11.6896
▁Tưởng	-11.6896
▁mm	-11.6902
▁28.6	-11.6907
▁21.9	-11.6922
▁Serge	-11.6923
ris	-11.6925
▁Video	-11.6926
▁Bông	-11.6933
Khu	-11.6934
▁đằng	-11.6937
ac	-11.694
▁18.6	-11.6944
▁ạt	-11.6944
▁Cháu	-11.6946
▁hấu	-11.6951
▁bới	-11.6952
▁8.000	-11.6953
▁Mua	-11.6959
▁“3	-11.6959
▁10.12	-11.6962
▁Thoa	-11.6966
▁14.7	-11.697
Bạn	-11.6972
▁rùa	-11.6979
▁bảy	-11.698
▁23.10	-11.6981
▁mía	-11.6981
▁Max	-11.6996
▁600.000	-11.6997
▁Tà	-11.6999
▁Ranh	-11.7013
▁1987	-11.7014
▁29.8	-11.7016
▁Tom	-11.7021
▁lót	-11.7022
▁9.6	-11.7023
hơn	-11.703
FA	-11.7032
▁Suarez	-11.7036
▁Texas	-11.7036
1/	-11.7045
▁Trãi	-11.705
▁Trảng	-11.7051
▁1/3	-11.7052
▁4-5	-11.7055
im	-11.706
fa	-11.7064
▁xé	-11.7066
▁Lư	-11.7066
▁dép	-11.7078
ick	-11.708
ung	-11.7092
▁Đổi	-11.7095
giải	-11.7099
▁Thích	-11.7103
▁23.6	-11.7105
▁ngỡ	-11.7106
▁IX	-11.7111
anh	-11.7112
▁vịt	-11.712
od	-11.7126
trên	-11.7127
▁thoảng	-11.7128
▁Shi	-11.7129
ino	-11.7132
▁1.300	-11.7132
▁CB	-11.7134
▁Thánh	-11.7135
▁CBCNV	-11.7137
▁Hạn	-11.7137
ts	-11.714
▁Uber	-11.714
▁Trụ	-11.7146
▁vân	-11.7149
▁dạo	-11.7154
▁khỉ	-11.7154
▁Phục	-11.7156
▁24.1	-11.7156
▁ván	-11.7157
▁Hye	-11.7185
▁bọt	-11.7194
▁Futsal	-11.7206
▁nhiễu	-11.7206
▁18.2	-11.7211
▁Vẫn	-11.7212
▁27.5	-11.7213
▁nho	-11.7215
đi	-11.7215
▁nốt	-11.7221
▁12.000	-11.7222
▁109	-11.7224
▁28.11	-11.7225
ọ	-11.7229
▁cong	-11.7231
ạn	-11.7234
nóng	-11.7242
á	-11.7244
ron	-11.7245
ân	-11.7246
"...	-11.7248
ee	-11.7248
▁Jeff	-11.725
▁Dò	-11.7256
▁đả	-11.7266
-6	-11.7269
▁Nhạc	-11.7271
les	-11.7272
eo	-11.7272
▁ghé	-11.7275
▁113	-11.7285
▁Play	-11.7292
▁11.7	-11.7292
▁Boeing	-11.7293
▁tivi	-11.7293
▁2.12	-11.7295
▁hoi	-11.7299
▁Nh	-11.7301
▁19.10	-11.7304
▁22.12	-11.7307
▁20.10	-11.7312
▁18.11	-11.7314
hang	-11.7315
▁tre	-11.7317
▁Serbia	-11.7322
▁12.11	-11.7324
...”.	-11.7327
ăng	-11.7333
per	-11.7347
▁dạn	-11.7348
ion	-11.7349
▁Tehran	-11.7351
▁hòn	-11.7352
▁Chan	-11.7352
▁1.1.2021	-11.7354
▁7.10	-11.7356
▁mạ	-11.7357
Nhật	-11.7358
▁thòi	-11.7366
▁20-23	-11.7366
5.	-11.7367
wi	-11.7368
▁80.000	-11.7375
▁Alex	-11.7386
▁12.1	-11.739
▁nương	-11.7395
▁29.11	-11.7395
▁f	-11.7395
Tam	-11.7399
▁tro	-11.7403
VBĐQ	-11.7409
▁Forbes	-11.7409
▁lùng	-11.741
▁CTCP	-11.7411
▁Mạc	-11.7415
▁0,1	-11.7415
▁112	-11.7418
▁nâu	-11.7424
Sở	-11.743
▁21.1	-11.7436
▁13.8	-11.7439
▁Macron	-11.7439
▁27.10	-11.7441
▁rạch	-11.7441
Hàn	-11.7442
Ch	-11.7446
▁hét	-11.745
8/	-11.7453
▁thoa	-11.7459
▁12.8	-11.7464
▁20.6	-11.7471
hoặc	-11.7476
▁khôn	-11.7476
▁27.11	-11.7476
▁2020-2021	-11.7478
SC	-11.748
ốc	-11.7482
▁Tesla	-11.7483
▁UV	-11.7484
Tất	-11.7486
▁25.1	-11.7494
/3	-11.7494
▁Brunei	-11.7498
▁xáo	-11.75
▁60.000	-11.7502
▁21.3	-11.7502
▁ủ	-11.7508
▁dại	-11.751
▁Napoli	-11.7513
ăm	-11.7517
▁bạt	-11.7521
▁Ye	-11.7523
san	-11.7527
▁Nhạ	-11.7538
▁21.6	-11.7541
▁Thắm	-11.7542
▁2025.	-11.7554
▁Yemen	-11.7557
▁lụy	-11.7557
▁28.9	-11.756
Sự	-11.7565
▁nghẹn	-11.7572
▁22-25	-11.7573
▁út	-11.7577
▁khiếp	-11.7581
Fed	-11.7581
▁Arab	-11.7584
▁Hungary	-11.7587
▁eo	-11.7589
pi	-11.7594
▁CAD	-11.7595
cách	-11.7597
ty	-11.7604
▁Nay	-11.7609
▁26.11	-11.761
Phan	-11.7611
▁2.10	-11.7613
▁miện	-11.7616
tại	-11.7616
▁Leipzig	-11.7617
▁muỗng	-11.7617
ye	-11.762
▁Kênh	-11.7632
▁Awards	-11.7632
▁Vỹ	-11.7633
-19”	-11.7637
▁19.6	-11.764
▁mẹo	-11.7646
▁Sanchez	-11.7647
▁Sydney	-11.7647
▁13.7	-11.7649
▁19.2	-11.7652
az	-11.7653
▁vách	-11.7655
▁Cheng	-11.7657
ico	-11.7658
▁17.11	-11.7661
kV	-11.7662
▁hăng	-11.7662
gmail	-11.7662
▁Thức	-11.7663
Tình	-11.7671
▁Uruguay	-11.7677
▁Đứng	-11.7677
▁cưng	-11.7677
ớ	-11.7678
▁chen	-11.7679
▁101	-11.7685
▁BQL	-11.7685
▁sà	-11.7689
▁2.500	-11.7692
Đối	-11.7701
DXY	-11.7707
▁Doãn	-11.7708
▁2012,	-11.7708
BC	-11.7713
ei	-11.7717
▁Phụng	-11.7717
▁Đừng	-11.7721
những	-11.7731
Lào	-11.7731
▁Maria	-11.7732
▁ph	-11.7732
▁cm	-11.7733
IS	-11.7734
▁ủi	-11.774
▁ồ	-11.7741
▁man	-11.7744
our	-11.7744
▁khía	-11.7747
▁Ký	-11.7748
▁Brighton	-11.7752
▁Fa	-11.7767
▁chằng	-11.7767
▁keo	-11.7768
▁2019-2020	-11.7773
▁Bát	-11.7781
suýt	-11.7782
▁Ligue	-11.7783
rở	-11.7784
▁16.1	-11.7789
▁mìn	-11.7792
▁21.8	-11.7793
▁Asia	-11.7796
▁quái	-11.78
▁li	-11.7802
▁19.12	-11.7803
▁kẽm	-11.7804
▁Jun	-11.7809
hen	-11.7812
▁Đăk	-11.7813
▁9.11	-11.7818
EUR	-11.7821
▁13.1	-11.7826
▁Southampton	-11.7828
▁dặn	-11.7828
▁Ramos	-11.7829
▁24.9	-11.7833
▁Khác	-11.7837
▁3-2	-11.7842
▁nòng	-11.7844
▁ngứa	-11.7844
▁103	-11.785
Quận	-11.7853
▁Hi	-11.7853
▁pho	-11.7868
ez	-11.7869
▁TKV	-11.787
▁Haaland	-11.7874
▁giàn	-11.7875
▁HCV	-11.7876
▁1984	-11.7876
ến	-11.7877
▁6.11	-11.7877
▁23.11	-11.7877
ver	-11.7882
▁trăn	-11.7889
▁sấu	-11.789
▁Osaka	-11.789
▁18.12	-11.7902
▁chuồng	-11.7905
Tây	-11.7908
▁2.11	-11.7911
điểm	-11.7915
OS	-11.7916
▁chót	-11.7919
▁Tùy	-11.792
▁Huyết	-11.7922
▁12.9	-11.7929
đại	-11.793
EC	-11.7932
vo	-11.7932
▁Truy	-11.7933
ết	-11.7938
▁VNPT	-11.7941
Ba	-11.7942
▁nhược	-11.7951
▁21.12	-11.7952
▁nguyệt	-11.7954
ỏ	-11.7957
▁1.800	-11.796
tu	-11.7966
▁omega	-11.7967
▁giềng	-11.7967
▁gội	-11.7967
▁25.9	-11.7967
▁cám	-11.7969
ụ	-11.7971
▁tấp	-11.7972
▁3%	-11.7976
▁1983	-11.7976
ẫu	-11.7976
tt	-11.798
▁Áp	-11.798
▁Kop	-11.7982
gu	-11.7985
chỉ	-11.7992
▁Airways	-11.7998
▁24.10	-11.8008
tính	-11.8011
zi	-11.8012
▁Đốc	-11.8014
-15	-11.802
ura	-11.8029
▁Biết	-11.8035
▁mài	-11.8037
▁5.10	-11.8039
▁Jo	-11.804
▁7.11	-11.804
▁11.12	-11.8042
▁ướp	-11.8045
▁rũ	-11.8045
▁28.12	-11.8053
▁kẽ	-11.8054
▁Dubai	-11.806
▁Ukraine	-11.8062
siêu	-11.8072
va	-11.8075
▁loãng	-11.8076
▁Tay	-11.8088
king	-11.809
▁dứa	-11.8092
▁Gea	-11.8103
▁26.12	-11.8103
▁Rashford	-11.8107
Ban	-11.8109
▁Cực	-11.8112
-16	-11.8114
9/	-11.8119
▁bêtông	-11.8123
▁cuồng	-11.8123
▁Ái	-11.8133
▁21.11	-11.8135
▁PVF	-11.8138
▁Đền	-11.8139
▁7,5	-11.814
▁CHF	-11.814
▁VIII	-11.8141
▁Juve	-11.8141
▁25.12	-11.8148
▁Khôi	-11.8154
▁Yonhap	-11.8154
▁21-24	-11.8155
▁ngựa	-11.8155
▁Láng	-11.8161
▁Burnley	-11.817
▁Jennie	-11.817
▁Spurs	-11.817
▁Peru	-11.8173
gan	-11.8183
như	-11.8189
q	-11.8192
▁22.1	-11.8192
▁TLV	-11.8195
suất	-11.8197
Bảo	-11.8198
tự	-11.8198
.2013	-11.8201
▁rẫy	-11.8202
▁nhộn	-11.8202
▁Diện	-11.8203
▁nuốt	-11.8205
▁vòi	-11.8206
▁chăng	-11.8208
▁(32	-11.8208
ent	-11.8211
▁Rangnick	-11.8218
Thực	-11.8229
▁hormone	-11.8234
▁SEK	-11.8235
▁1)	-11.8235
▁gai	-11.8239
▁Lữ	-11.824
▁PVN	-11.8242
▁me	-11.8246
sco	-11.8247
▁BT	-11.8248
AP	-11.8253
▁One	-11.8254
sh	-11.8255
▁22.11	-11.826
▁tam	-11.8264
▁Chức	-11.8266
Tổ	-11.8271
line	-11.8274
được	-11.8277
▁24.12	-11.829
▁27.9	-11.8292
▁báu	-11.8293
Lao	-11.8294
▁27.12	-11.8296
▁Belarus	-11.8298
▁106	-11.83
▁inch	-11.83
oc	-11.8305
▁30-33	-11.8314
▁Luis	-11.8315
▁12.2	-11.8321
▁Qu	-11.8334
▁25.000	-11.8336
▁America	-11.8336
▁Rau	-11.8336
▁16.12	-11.834
▁Xu	-11.8343
▁hức	-11.8346
▁tị	-11.8353
yo	-11.8355
uk	-11.8361
▁2021-2025	-11.8362
▁ngoạn	-11.8362
▁loét	-11.8364
ề	-11.8369
▁Cứ	-11.8371
ái	-11.8375
▁Vô	-11.8377
▁Tiệp	-11.8378
▁váy	-11.8379
han	-11.8386
▁17.12	-11.8388
▁Nà	-11.839
▁Che	-11.8393
▁né	-11.8394
▁Mazda	-11.8394
▁hãm	-11.8394
▁nhuyễn	-11.8394
...”	-11.8395
▁Giữ	-11.8397
▁xào	-11.8397
den	-11.84
▁bú	-11.8404
▁(35	-11.8406
CO	-11.8407
ẩn	-11.8409
▁Saint	-11.841
▁Diego	-11.841
▁nghịch	-11.8411
▁SVĐ	-11.8412
.12.2020	-11.8412
▁14.12	-11.8419
đạt	-11.8422
▁tem	-11.843
▁nang	-11.8432
▁Tông	-11.8433
NS	-11.8442
mon	-11.8443
600	-11.8444
Giỏi	-11.8446
ệ	-11.8454
/4	-11.8455
▁29.6	-11.8457
▁Pochettino	-11.8459
▁Utd	-11.8459
▁vắt	-11.8459
▁ni	-11.846
▁2018-2019	-11.846
▁Tra	-11.8464
▁107	-11.8464
▁26.9	-11.8478
▁Chăm	-11.8479
▁chà	-11.8481
▁CĐVN	-11.8483
▁xổ	-11.8492
▁quyến	-11.8492
▁GĐ	-11.8512
▁thưa	-11.8513
%/	-11.8514
ast	-11.8514
▁30.12	-11.8529
▁and	-11.853
800	-11.8531
▁cưa	-11.8533
▁niệu	-11.8541
▁trệ	-11.8543
▁võng	-11.8544
CS	-11.8544
▁Uông	-11.8553
▁Chuyện	-11.8554
tên	-11.8557
▁nan	-11.8558
▁26.1	-11.8559
▁Chăn	-11.8561
▁Woo	-11.8561
▁2014.	-11.8564
hay	-11.8566
▁Rai	-11.8566
▁31-34	-11.8574
▁Lampard	-11.8574
INH	-11.8579
▁phác	-11.8584
▁Te	-11.859
▁Street	-11.859
▁Đầm	-11.859
▁Răng	-11.8591
▁Je	-11.8591
ina	-11.8595
Bank	-11.8598
▁BĐS	-11.8598
▁chè	-11.8601
▁Open	-11.8607
▁Sầ	-11.8623
▁Silva	-11.8623
▁26.10	-11.8626
Chủ	-11.8636
Thành	-11.8638
▁Justin	-11.864
▁Thiệu	-11.864
▁175	-11.8641
▁YG	-11.8641
▁102	-11.865
▁Giống	-11.8659
▁Club	-11.8659
we	-11.8666
thôn	-11.8668
▁Mang	-11.8668
▁NN	-11.867
100	-11.8671
▁liễu	-11.8673
kể	-11.8673
▁VTC	-11.8677
200	-11.8685
▁45%	-11.8685
▁Bom	-11.8688
▁hưng	-11.869
TN	-11.8691
▁XVI	-11.8692
%),	-11.8693
mer	-11.8699
▁Vành	-11.87
rin	-11.8701
...).	-11.8705
▁ngần	-11.8706
▁Phản	-11.8707
▁vá	-11.8711
▁CHI	-11.8712
ửa	-11.8712
▁Chang	-11.8719
Hãy	-11.8719
Thương	-11.872
í	-11.8721
▁chíp	-11.8725
▁th	-11.8725
▁9.10	-11.8725
▁Thịt	-11.8726
.5.2021	-11.8734
▁Sergio	-11.874
▁Yang	-11.874
▁27.6	-11.8743
▁Love	-11.8746
▁Lã	-11.8748
▁13.12	-11.876
dự	-11.877
my	-11.8771
▁HS	-11.8772
▁7-8	-11.878
▁Bamboo	-11.879
▁hán	-11.879
ero	-11.8792
▁Khe	-11.8792
500	-11.8794
▁KCB	-11.8798
▁6.10	-11.8801
▁Khó	-11.8804
▁điên	-11.8805
▁SUV	-11.8807
▁gã	-11.8812
ộp	-11.8819
“	-11.882
▁Cử	-11.8821
▁14.1	-11.8823
▁Crystal	-11.8824
NA	-11.8827
▁óc	-11.8827
iúp	-11.883
mg	-11.8831
▁cược	-11.8841
▁xước	-11.8858
▁13.2	-11.8859
▁Mil	-11.8866
Cầu	-11.8871
Tân	-11.8874
▁găng	-11.8875
ku	-11.8879
Thật	-11.8888
ừng	-11.8892
hi	-11.8892
▁Next	-11.8894
.2021)	-11.8903
▁thỉnh	-11.8908
▁Polking	-11.8908
▁nhủ	-11.8909
▁240	-11.8912
▁29.9	-11.8913
RON	-11.8924
▁Bahrain	-11.8925
▁rước	-11.8925
▁cấy	-11.8927
▁135	-11.893
▁phô	-11.8931
▁1979	-11.8932
▁250.000	-11.8939
▁Harris	-11.8943
▁giã	-11.8946
▁1974	-11.895
▁Khán	-11.8953
ị	-11.8959
▁sầu	-11.896
▁xài	-11.8967
▁8.12	-11.897
▁Ngã	-11.8975
▁Damascus	-11.8977
▁gieo	-11.8977
▁sấy	-11.8978
▁đôla	-11.8984
ou	-11.899
▁(40	-11.899
Jurgen	-11.8994
▁Vingroup	-11.8994
▁Trân	-11.8994
▁800.000	-11.8996
▁Thạc	-11.9019
▁114	-11.9025
Vaccine	-11.9026
▁Arteta	-11.9028
▁chướng	-11.9028
thu	-11.9043
▁chốn	-11.9044
▁Wolves	-11.9045
ẻ	-11.9047
▁chải	-11.9048
▁Thy	-11.9054
▁Nằm	-11.9063
▁Vốn	-11.9063
▁Rosé	-11.9063
4,	-11.9063
▁Choi	-11.9064
▁Chú	-11.9065
▁Hoe	-11.9065
▁am	-11.9071
▁Thuý	-11.9081
▁Dựa	-11.9081
▁Bao	-11.9092
▁Xí	-11.9096
▁Griezmann	-11.9097
▁4.6	-11.9098
▁Sung	-11.9098
▁sòng	-11.91
▁Diên	-11.9102
▁Covid	-11.9103
▁As	-11.9111
▁đọ	-11.9111
▁Hứa	-11.9116
▁111	-11.9118
Cố	-11.9129
▁lột	-11.913
▁ngoặt	-11.9132
▁BBC	-11.9135
-30	-11.9142
▁Yong	-11.9149
▁Heung	-11.915
kin	-11.9168
1-	-11.917
ứt	-11.9172
▁nành	-11.9177
gen	-11.9181
-12	-11.9184
▁Capitol	-11.9184
▁XHTT	-11.9184
▁scandal	-11.9184
▁caosu	-11.9191
ĩ	-11.9195
ữa	-11.9198
▁Bruyne	-11.9202
▁Universe	-11.9202
▁cuộn	-11.9202
▁Mạng	-11.9202
fe	-11.9203
▁Bốn	-11.9207
MC	-11.9215
▁2005	-11.9216
▁rạn	-11.922
▁á	-11.9222
▁gi	-11.9223
▁nàn	-11.9226
▁giòn	-11.9228
▁Media	-11.9237
hu	-11.9238
▁13.11	-11.9248
GB	-11.9249
BGDĐT	-11.9255
▁Watford	-11.9255
▁Kurd	-11.9255
▁Trại	-11.9255
▁28-31	-11.9255
tri	-11.9256
hiện	-11.9257
QH	-11.9259
▁Chồng	-11.926
nd	-11.9262
▁HD	-11.9264
mã	-11.9266
20.000	-11.9267
▁3.12	-11.9269
▁(37	-11.9271
iz	-11.928
▁USS	-11.928
cc	-11.9285
▁điêu	-11.9304
▁Dmitry	-11.9308
▁ngạt	-11.9308
▁1975	-11.9314
▁23.7	-11.9315
▁1.400	-11.9316
▁suôn	-11.9317
▁(33	-11.9319
und	-11.932
▁Koeman	-11.9325
▁Maguire	-11.9325
▁Quỳ	-11.9326
ell	-11.9327
▁bén	-11.9331
▁2020-2025	-11.9342
▁70.000	-11.9353
▁1970	-11.9354
era	-11.9354
▁tụy	-11.9354
▁Xa	-11.9359
▁hạm	-11.936
lượt	-11.936
Pleiku	-11.9378
▁Hoằng	-11.9379
▁càphê	-11.9397
▁Cù	-11.9397
▁đu	-11.94
▁Pan	-11.9402
▁Tiết	-11.9404
▁6-7	-11.9412
▁4.10	-11.9414
▁bin	-11.9414
%).	-11.9422
▁mắng	-11.9426
▁chén	-11.9433
▁Quất	-11.9433
▁98%.	-11.9434
▁nhả	-11.9436
0.	-11.9441
(	-11.945
Hai	-11.9452
▁Tho	-11.9458
▁vu	-11.9472
ao	-11.9473
▁kìm	-11.9475
▁xẻ	-11.9475
▁1978	-11.9476
Nhiều	-11.9486
▁bướu	-11.9486
▁%	-11.9489
/2	-11.9491
▁(36	-11.9493
▁Pe	-11.9501
▁Cavani	-11.9504
▁Lewandowski	-11.9504
▁son	-11.9517
SE	-11.9518
▁4.12	-11.952
5/	-11.9541
▁Chanathip	-11.9541
Tại	-11.9544
ff	-11.9546
▁(34	-11.9548
▁bênh	-11.9567
▁Cu	-11.9569
▁Nhu	-11.9571
▁lam	-11.9571
ọc	-11.9573
▁7.12	-11.9579
▁ghét	-11.958
▁ki	-11.9585
▁tr	-11.9588
vin	-11.9592
▁2,2	-11.9593
▁Kevin	-11.9595
▁Biểu	-11.9597
/24	-11.9598
ear	-11.9608
▁4.8	-11.961
▁shipper	-11.9613
▁1/2	-11.9615
▁Sổ	-11.9616
▁6.8	-11.9616
ngụ	-11.963
▁Va	-11.963
▁Kazakhstan	-11.9632
▁7%	-11.9636
▁Benzema	-11.965
▁ngửa	-11.965
▁Copa	-11.965
DL	-11.9653
▁1.11	-11.9657
gần	-11.9668
▁Coutinho	-11.9668
▁Mũi	-11.9669
▁(2)	-11.967
▁Global	-11.9671
▁190	-11.9671
▁Tranh	-11.9675
que	-11.968
▁4%	-11.9691
▁đốn	-11.9698
▁thiều	-11.9705
▁Leeds	-11.9705
▁Duẩn	-11.9706
▁Thụ	-11.9709
ít	-11.9723
Hôm	-11.9725
▁169	-11.9729
▁27.7	-11.974
▁ti	-11.9741
▁Đỉnh	-11.9742
▁Powell	-11.9742
đơn	-11.9742
▁Vài	-11.9744
ten	-11.9745
▁9.12	-11.9747
▁Xi	-11.975
▁SH	-11.9756
▁2011,	-11.9757
▁Medvedev	-11.9761
▁Taliban	-11.9761
▁Vinhomes	-11.9761
▁Galaxy	-11.9761
▁26-29	-11.9761
ite	-11.9767
.4.2020	-11.9774
▁1.600	-11.9783
▁4.2021	-11.9784
▁Bờ	-11.9796
▁cháo	-11.9799
▁Ya	-11.98
▁2026	-11.9804
HC	-11.9805
ud	-11.981
▁đò	-11.9819
▁Fu	-11.9819
▁Cang	-11.9826
▁MH	-11.9827
▁tơ	-11.9828
Chi	-11.9837
MS	-11.9838
▁đan	-11.9839
▁1981	-11.9842
ity	-11.9844
ế	-11.9847
▁0-3	-11.9848
net	-11.9848
Quy	-11.9853
Phó	-11.9854
sự	-11.9857
▁3.10	-11.9859
ss	-11.9865
▁êm	-11.9866
▁Trán	-11.9866
▁104	-11.9866
▁Muangthong	-11.9873
▁bệ	-11.9873
-1.	-11.9874
▁You	-11.9875
▁cối	-11.9876
▁dang	-11.9881
▁vác	-11.9886
CA	-11.9891
TU	-11.9891
▁Liễu	-11.9891
▁app	-11.9901
oo	-11.9903
▁270	-11.991
Mẹ	-11.9911
AC	-11.9916
▁8-9	-11.9922
▁tạc	-11.9923
elensky	-11.9929
▁Entertainment	-11.9929
▁Guardian	-11.9929
Sinh	-11.993
-10	-11.9932
▁Cứu	-11.9933
hàng	-11.9934
ON	-11.994
▁1,9	-11.9943
▁Antonio	-11.9948
▁chèn	-11.9953
úc	-11.9956
▁break	-11.9961
▁1994,	-11.9964
▁nhớt	-11.9966
▁Akira	-11.9967
EU	-11.9987
▁Dĩnh	-11.9987
đóng	-11.9989
▁3.2020	-12.0003
▁Ireland	-12.0005
▁Pasteur	-12.0005
Đông	-12.0008
▁Hee	-12.0012
▁hít	-12.0024
▁gân	-12.0024
▁HTX	-12.0025
Hướng	-12.0025
ắm	-12.0028
ib	-12.0036
▁Muốn	-12.0037
▁Xoài	-12.0043
▁Thẻ	-12.0048
▁Thúc	-12.0053
▁12.2020	-12.0054
▁Biến	-12.0055
▁se	-12.006
▁uốn	-12.0061
▁ekip	-12.0062
▁rễ	-12.0062
▁Sch	-12.0076
▁xăm	-12.0081
Ngay	-12.0083
▁Day	-12.0086
ĐH	-12.0089
▁Nâng	-12.0092
▁carbon	-12.0101
▁19-22	-12.0101
Khánh	-12.0102
hot	-12.011
▁8%	-12.0114
▁mazut	-12.0119
▁lén	-12.0119
▁Comex	-12.0119
▁chớp	-12.0119
thi	-12.0124
▁Bernabeu	-12.0138
▁Fanpage	-12.0138
▁Yingluck	-12.0138
▁Golf	-12.0139
▁rồng	-12.0142
Vinh	-12.0143
orn	-12.0145
/6	-12.0147
5.000	-12.0158
▁Villarreal	-12.0158
kíp	-12.016
▁31.8	-12.0162
aw	-12.0164
▁Gươm	-12.0177
▁123	-12.0181
Cô	-12.0189
▁lu	-12.019
TM	-12.0192
▁chèo	-12.0198
▁gene	-12.0199
▁SGK	-12.0204
PTNT	-12.0205
▁ẩu	-12.021
▁12.5	-12.0214
▁Sơ	-12.0216
Pháo	-12.0219
▁1995	-12.0225
▁Bánh	-12.0226
tion	-12.0228
▁4-1	-12.0229
▁rã	-12.0235
▁trêu	-12.0235
▁Suốt	-12.0236
▁Đặt	-12.0252
▁giục	-12.0255
▁miệt	-12.0255
Play	-12.0257
che	-12.0267
AN	-12.0269
▁gốm	-12.0274
▁rầm	-12.0274
7,5	-12.0276
▁Kẻ	-12.0276
ston	-12.0276
thời	-12.0277
▁vôi	-12.028
▁mít	-12.0282
▁5,5	-12.0283
▁nhồi	-12.0294
ắng	-12.0299
aya	-12.0302
lla	-12.0307
van	-12.0309
▁dai	-12.0313
▁Angela	-12.0314
▁230	-12.0315
▁toan	-12.0325
▁Suzuki	-12.0333
▁Món	-12.0333
7/	-12.0335
▁hốt	-12.0336
▁Khá	-12.0348
ft	-12.0352
▁Valentine	-12.0355
▁8.1	-12.0359
xi	-12.0362
▁4.2020	-12.0364
▁Ad	-12.0366
▁5.3	-12.0369
?”.	-12.037
/100	-12.0372
▁nạo	-12.0375
▁Dr	-12.0376
▁117	-12.0376
nay	-12.0378
▁vét	-12.0387
▁2021-2026	-12.0387
▁29-32	-12.0392
▁6-7,	-12.0404
▁16.5	-12.0405
▁VĐQG	-12.0406
▁TTTT	-12.041
art	-12.041
▁Sha	-12.0412
▁Chàm	-12.0417
Văn	-12.0417
Họ	-12.0422
▁KH	-12.0431
▁sâm	-12.0432
▁BXH	-12.0436
BV	-12.0446
▁1976	-12.0447
CB	-12.045
▁1.2021	-12.045
▁Gio	-12.0452
▁rơ	-12.0465
▁mỉ	-12.0465
▁Hollywood	-12.0471
▁30.11	-12.0474
Thông	-12.0475
▁SAR	-12.0475
300	-12.0476
?"	-12.0484
yan	-12.0487
ắn	-12.0491
▁choáng	-12.0491
trước	-12.0494
▁10.8	-12.0501
▁bỉ	-12.0505
gar	-12.0507
▁Đán	-12.0509
▁nhục	-12.0511
▁2,3	-12.0514
▁liu	-12.0515
▁Màn	-12.0516
▁Phổi	-12.0518
▁Quỷ	-12.052
▁Android	-12.0521
yl	-12.0521
▁126	-12.0528
1,5	-12.053
▁náo	-12.0532
▁visa	-12.0532
▁nể	-12.0532
▁95%.	-12.0533
đến	-12.0535
▁360	-12.0537
▁1971	-12.0549
berg	-12.0554
Lừa	-12.0554
▁1985,	-12.0566
▁PCTT	-12.0566
VC	-12.057
gọi	-12.0575
▁TNGT	-12.0578
PM	-12.0579
ld	-12.0583
▁Ku	-12.0583
▁ngàng	-12.0584
AR	-12.0588
ub	-12.059
▁Mật	-12.0591
▁China	-12.0597
▁FED	-12.0605
▁AI	-12.0606
▁bẻ	-12.0612
ue	-12.0613
▁Tống	-12.0617
Hoàng	-12.0617
▁ST	-12.0622
▁30.4,	-12.0622
▁dì	-12.0624
▁Kyo	-12.0626
▁SSI	-12.0632
▁bầm	-12.0632
▁nghẹt	-12.0632
▁ngậm	-12.0632
ui	-12.0632
Dù	-12.0637
▁1,0	-12.0637
▁Skripal	-12.0652
ương	-12.0662
▁Đấu	-12.0672
nes	-12.0672
Yên	-12.0677
▁Đéc	-12.0692
▁ngọc	-12.0693
▁Rào	-12.0693
ói	-12.07
Ma	-12.07
▁0,3	-12.0704
▁lanh	-12.0706
▁24.3	-12.071
▁6%	-12.0711
▁ODA	-12.0713
res	-12.0716
Đắk	-12.0717
3,5	-12.0723
▁20.8	-12.0725
ade	-12.0726
▁Wang	-12.0727
▁chả	-12.0728
▁Aubameyang	-12.0733
▁0,7	-12.0744
▁8.3,	-12.0748
ỡ	-12.0749
▁On	-12.0752
về	-12.0758
Lúc	-12.0759
▁logo	-12.076
.8.2020	-12.0768
▁Jisoo	-12.0774
▁rưỡi	-12.0774
▁diễu	-12.0774
THPT	-12.0778
▁CAND	-12.0779
▁1995,	-12.0788
▁57,	-12.0791
50.000	-12.0792
▁hoạ	-12.0793
▁Floyd	-12.0795
▁Nigeria	-12.0795
▁trèo	-12.0795
▁2021-22	-12.0796
▁BMW	-12.0797
▁2016-2021	-12.0803
Làm	-12.0804
▁Merkel	-12.0815
▁hông	-12.0816
▁Eun	-12.0827
DU	-12.083
▁sởi	-12.0831
▁tấu	-12.0836
▁Berlin	-12.0836
▁mười	-12.0836
▁bịt	-12.084
▁ben	-12.0842
▁TikTok	-12.0857
▁Wenger	-12.0857
▁Far	-12.0861
▁tản	-12.0868
ường	-12.0868
▁chững	-12.0869
ồi	-12.0869
▁14.5	-12.0875
seong	-12.0881
/12	-12.0882
cao	-12.0884
CH	-12.0888
▁Ngôn	-12.0899
▁Mùi	-12.09
▁Lức	-12.0901
AFC	-12.0907
ét	-12.0917
▁SCMP	-12.0919
▁triết	-12.092
ella	-12.0928
▁TN	-12.0929
las	-12.093
▁3-5	-12.0931
▁cào	-12.0933
370	-12.0938
▁knock	-12.094
▁lụa	-12.094
▁Com	-12.0941
▁14.5,	-12.0942
Chương	-12.0945
00.000	-12.0949
▁6,5	-12.0952
▁Chắc	-12.0952
/7	-12.0953
▁260	-12.0954
ice	-12.0963
ác	-12.0966
▁NSDLĐ	-12.0966
▁BTV	-12.0971
AM	-12.0974
▁Rodrigo	-12.0981
ợi	-12.0982
▁6.9	-12.0985
đánh	-12.0987
▁Mơ	-12.0988
▁Music	-12.099
▁Eric	-12.0993
bình	-12.1008
ển	-12.1015
▁12%	-12.1018
ari	-12.1021
▁7.6	-12.1022
▁Lyon	-12.1025
bệnh	-12.1029
TH	-12.1029
▁35%	-12.1034
VTV	-12.1044
chạy	-12.105
Đến	-12.105
/5	-12.1059
▁Ngà	-12.1063
▁Frank	-12.1066
▁Trứng	-12.1068
▁Soo	-12.1074
▁16/	-12.1079
▁AT	-12.1084
▁collagen	-12.1087
MP	-12.109
▁đao	-12.1096
BCA	-12.1099
ada	-12.1103
kov	-12.1105
▁(50	-12.1108
▁xoá	-12.1108
▁South	-12.1108
▁Ngăn	-12.1108
▁bực	-12.1109
qua	-12.1109
▁Plus	-12.1113
▁Sê	-12.1114
▁hắn	-12.1118
HD	-12.1119
CI	-12.1124
▁Chiềng	-12.1129
▁27-30	-12.113
areth	-12.1132
VP	-12.1134
▁mủ	-12.114
▁thốn	-12.1149
Barack	-12.1149
ES	-12.115
▁Aguero	-12.115
▁Bửu	-12.115
▁Valencia	-12.115
▁sưởi	-12.1152
tổ	-12.1152
▁nhôm	-12.1156
▁soda	-12.1165
▁Xứ	-12.1171
▁Sterling	-12.1172
▁KHĐT	-12.1179
▁31.12.2021	-12.1182
▁Chris	-12.1182
▁Khuất	-12.1183
▁Đám	-12.1184
/11	-12.1186
5,5	-12.1188
ide	-12.1189
▁ISS	-12.1192
▁Perseverance	-12.1193
Cty	-12.12
nữ	-12.1202
ộ	-12.1203
VI	-12.1207
▁ắc	-12.1209
▁Modric	-12.1215
▁Novak	-12.1215
▁rát	-12.1215
▁nhốt	-12.1215
ano	-12.1218
ita	-12.1218
Dự	-12.1221
dio	-12.1225
▁2/3	-12.1226
▁(39	-12.1226
2,5	-12.123
▁Ingenuity	-12.1236
▁trặc	-12.1236
▁Ngạn	-12.1236
▁2017-2018	-12.1236
▁Lớn	-12.1237
▁Or	-12.124
▁We	-12.1241
▁trù	-12.1243
▁Ryan	-12.1243
0%	-12.1246
▁Sóng	-12.1248
▁Mc	-12.1254
▁Độc	-12.1257
▁14.6	-12.1259
▁lúng	-12.1262
400	-12.1262
▁âu	-12.1262
▁Black	-12.1266
PV	-12.1266
qu	-12.127
khi	-12.1272
ag	-12.1275
▁Cấn	-12.1279
▁Duterte	-12.1279
▁xuôi	-12.1279
▁chập	-12.1279
.2017.	-12.1283
▁kình	-12.1288
%;	-12.129
▁(38	-12.1292
▁Pennsylvania	-12.1301
▁Peskov	-12.1301
ale	-12.1301
har	-12.1304
▁0,4	-12.1316
ger	-12.1317
▁khốn	-12.1321
▁Atalanta	-12.1322
▁Bridge	-12.1322
▁smartphone	-12.1322
▁dè	-12.1328
Chính	-12.1329
lớp	-12.1329
▁Home	-12.1332
▁155	-12.1332
▁Vu	-12.1334
NN	-12.1334
8,5	-12.1335
▁5.2021	-12.1336
▁Fi	-12.1336
ew	-12.1341
▁ngắt	-12.1344
PA	-12.1347
Nữ	-12.1359
▁85%	-12.1361
▁Brexit	-12.1366
▁1972	-12.1367
▁18-21	-12.1367
▁ATP	-12.1372
▁đái	-12.1381
▁1000	-12.1382
▁Lậy	-12.1388
NT	-12.1388
▁Vượt	-12.1389
bank	-12.1391
▁Dưa	-12.1392
Cho	-12.1402
tổng	-12.1403
▁giáng	-12.1408
▁Microsoft	-12.1409
▁Mình	-12.1411
ck	-12.1415
ation	-12.1421
cơ	-12.1422
.3.2020	-12.1426
▁Fernandes	-12.1431
▁kệ	-12.1431
▁Sancho	-12.1432
▁phùn	-12.1432
▁ngài	-12.1432
▁0,2	-12.1435
ách	-12.1439
▁ngóng	-12.1439
▁129000015204	-12.1453
▁Pacific	-12.1453
▁Velvet	-12.1453
▁nấy	-12.1454
▁hổng	-12.1462
fo	-12.1467
mar	-12.1472
ã	-12.1473
▁UNESCO	-12.1475
▁chì	-12.1475
▁XVII	-12.1476
ect	-12.148
Vĩnh	-12.1482
▁KKT	-12.1485
▁khuấy	-12.1487
▁Erdogan	-12.1497
▁Jan	-12.1503
▁Leste	-12.1503
▁Mon	-12.1504
Bến	-12.1506
giá	-12.1508
▁15-20	-12.1508
▁Dã	-12.1512
▁Etihad	-12.1519
▁lựu	-12.152
▁32-35	-12.152
▁bìa	-12.1527
õ	-12.1528
▁khắ	-12.153
DP	-12.153
▁Thơm	-12.1537
▁le	-12.1539
▁Shinzo	-12.1541
▁ngòi	-12.1542
▁băm	-12.1543
▁Pôn	-12.1546
ala	-12.1549
▁nóc	-12.156
▁nến	-12.1564
▁rán	-12.1564
and	-12.1564
Ng	-12.1569
▁97%.	-12.1571
tiền	-12.1571
▁1968	-12.1573
▁ngán	-12.1579
tro	-12.1581
-36	-12.1587
ria	-12.159
▁Live	-12.1591
COVID	-12.1593
▁Cài	-12.16
▁127	-12.16
▁Paulo	-12.1601
▁Lâu	-12.1615
ID	-12.1619
▁Xú	-12.1619
age	-12.162
ạm	-12.1624
▁Dị	-12.1628
▁27.3	-12.163
▁đậy	-12.163
▁sẹo	-12.163
▁Gold	-12.1631
BA	-12.1634
▁liêng	-12.1637
▁xỉu	-12.164
▁Ag	-12.1648
▁cớ	-12.1658
▁61%	-12.166
▁Abu	-12.166
▁5-6	-12.1662
▁Ed	-12.1664
Cơ	-12.1666
80.000	-12.1672
▁Quần	-12.1675
▁ỏi	-12.1676
▁Càng	-12.1682
▁2019-20	-12.1682
?”	-12.1689
▁bọ	-12.1691
▁Nepal	-12.1698
▁insulin	-12.1698
▁Oscar	-12.1698
▁tróc	-12.1698
▁TGĐ	-12.1699
AI	-12.1704
▁lạng	-12.1706
▁Banking	-12.1707
▁1.700	-12.1711
▁COVAX	-12.172
▁Lavrov	-12.172
▁phật	-12.172
▁Anfield	-12.1723
▁mông	-12.1725
▁2,7	-12.1728
với	-12.1729
▁Her	-12.1741
▁Phẫ	-12.1742
▁TDTT	-12.1743
▁Miếu	-12.1744
▁Bàu	-12.1745
▁16.5,	-12.1745
▁ham	-12.1748
▁6.2020	-12.1753
▁12.2021	-12.1754
▁Lá	-12.1754
Sa	-12.1756
▁Gạc	-12.1767
trick	-12.1769
▁tuýp	-12.1769
▁2,4	-12.1777
XD	-12.1777
▁Gạo	-12.178
▁Nhị	-12.1785
▁Pharma	-12.1788
▁Tích	-12.179
ND	-12.179
▁Peter	-12.1795
▁2-4	-12.1798
gh	-12.1799
▁w	-12.1802
▁Căng	-12.1809
▁Nổi	-12.1811
▁Mac	-12.1811
▁Space	-12.1814
ig	-12.1817
Mọi	-12.1819
trường	-12.182
GTVT	-12.1824
ish	-12.1824
▁Bù	-12.1828
▁24.7	-12.183
▁lửng	-12.1834
▁Filip	-12.1834
▁Power	-12.1834
▁cội	-12.1836
quê	-12.1842
bắt	-12.1844
▁nCoV	-12.1844
he	-12.1845
▁khóm	-12.1852
▁gót	-12.1856
▁2000,	-12.1861
9,5	-12.1861
▁BVĐK	-12.1865
MO	-12.1873
Hành	-12.1876
▁Emmanuel	-12.1879
▁Súp	-12.1881
BO	-12.1888
▁Lạch	-12.1897
▁thính	-12.1897
▁ECMO	-12.1902
▁Đoan	-12.1905
▁Blue	-12.1907
Qua	-12.1909
▁Ge	-12.1911
▁2,6	-12.1911
▁rapper	-12.1911
▁9999	-12.1913
▁ĐB	-12.1914
▁280	-12.1917
▁Scotland	-12.1925
▁Richard	-12.1925
▁gắm	-12.1925
▁210	-12.1925
▁súp	-12.1926
▁Costa	-12.1927
Đội	-12.1936
▁9.000	-12.1941
AT	-12.1945
▁Yuanta	-12.1948
▁Lớp	-12.1949
▁Sir	-12.1956
gió	-12.1958
▁10-15	-12.1965
▁sờ	-12.1972
▁Giây	-12.1972
▁6.8,	-12.1973
nơi	-12.1981
▁vo	-12.1981
ham	-12.1983
zu	-12.1984
ani	-12.1986
len	-12.1991
▁rìa	-12.1994
▁Miura	-12.1995
▁quây	-12.1996
▁Sâm	-12.1999
▁2021-2026.	-12.2
▁Har	-12.2001
Chỉ	-12.2004
▁Nm	-12.2006
Bản	-12.2007
ời	-12.2012
▁6.2021	-12.2015
▁Sri	-12.2015
▁Ankara	-12.2018
▁Science	-12.2018
▁VOV	-12.2018
ãi	-12.2019
▁búa	-12.2021
lia	-12.2034
▁Bồng	-12.2037
▁Anthony	-12.2041
▁Federer	-12.2041
▁két	-12.2041
▁cò	-12.2043
ight	-12.2044
▁2024	-12.205
VPCP	-12.2058
▁Taylor	-12.2064
▁Ke	-12.2065
ỉ	-12.2066
▁Ver	-12.2068
▁Bỉnh	-12.2069
▁Juan	-12.2072
lic	-12.2075
▁Khoai	-12.208
▁22.5	-12.2084
▁CO	-12.2085
▁cấn	-12.2088
▁650	-12.2089
▁Sương	-12.2089
▁Thuốc	-12.209
700	-12.2091
▁ế	-12.2106
▁Chanh	-12.2107
70.000	-12.2109
mẹ	-12.211
▁Đakrông	-12.2111
▁Green	-12.2118
▁FAT	-12.212
Giải	-12.2122
▁RB	-12.2122
▁10.2020	-12.2125
▁12.5,	-12.2126
▁145	-12.2129
▁Xếp	-12.2136
ill	-12.2145
Nâng	-12.2145
...".	-12.2151
▁kWh	-12.2151
▁Boris	-12.2159
▁Rửa	-12.2159
▁Tượng	-12.216
▁Tế	-12.216
▁1.1.2022	-12.2161
VT	-12.2161
zo	-12.2167
▁Rõ	-12.2167
Mặc	-12.2168
/2015	-12.2175
▁Giàu	-12.2182
▁Chúa	-12.2185
▁Suga	-12.2192
2.5	-12.2193
ễ	-12.2197
▁quýt	-12.2198
▁Lin	-12.2199
.2.2021	-12.22
▁dẻo	-12.2206
▁1900	-12.2213
Pháp	-12.2216
trận	-12.2216
mùng	-12.2216
Đức	-12.2217
hạng	-12.2219
sy	-12.2222
ash	-12.2223
▁118	-12.2224
bin	-12.2225
din	-12.2226
bar	-12.2229
▁bừng	-12.223
amin	-12.2231
▁búp	-12.2231
ica	-12.2232
▁nhịn	-12.2233
▁Trùng	-12.2233
ôm	-12.2243
▁cụt	-12.2252
▁3,6	-12.2253
▁For	-12.2253
ứ	-12.2254
ũ	-12.2255
/2022	-12.2266
ban	-12.2268
▁21.5	-12.2269
▁5.2020	-12.227
sẽ	-12.2276
▁Armenia	-12.2276
▁Iceland	-12.2277
▁Phái	-12.2278
▁10.8,	-12.2278
▁IC	-12.2281
▁Nu	-12.2287
hộ	-12.2288
chiến	-12.2288
▁550	-12.2296
/9	-12.2298
▁lán	-12.2308
KT	-12.2311
▁Win	-12.2312
▁mí	-12.2314
▁Mãi	-12.2314
▁CX	-12.2315
▁TC	-12.2318
▁Idlib	-12.2324
▁penalty	-12.2324
▁gameshow	-12.2324
▁lợp	-12.2324
▁CNBC	-12.2325
▁tăm	-12.2327
erry	-12.2328
way	-12.2328
▁Jim	-12.2328
rất	-12.2335
CNVCLĐ	-12.2336
CNLĐ	-12.2336
ock	-12.2336
4,5	-12.2337
rs	-12.2342
▁xốp	-12.2348
▁Rồi	-12.2349
▁27.3,	-12.2364
▁Mà	-12.2364
Là	-12.2365
hy	-12.237
aki	-12.2371
▁GV	-12.2371
àn	-12.2373
▁2020-2025.	-12.2374
▁Hoành	-12.2375
▁ID	-12.2377
▁KCNA	-12.2385
cu	-12.2385
tic	-12.2393
▁165	-12.2396
▁Vọng	-12.2396
▁Đương	-12.2397
▁nản	-12.2398
▁VII	-12.2398
vô	-12.2406
Sơn	-12.2408
▁gàng	-12.2416
bản	-12.2418
▁Jones	-12.2421
áp	-12.2421
▁2020-21	-12.2422
95-	-12.2424
▁3.500	-12.2438
ake	-12.2445
▁Pháo	-12.2446
▁like	-12.2446
▁Yoo	-12.245
▁Kang	-12.245
tố	-12.2451
af	-12.2456
ato	-12.2462
▁132	-12.2466
▁Ten	-12.2468
▁Angeles	-12.2469
▁Victoria	-12.247
▁31,	-12.2474
▁Lôi	-12.2474
0,5	-12.2477
▁5-10	-12.2477
▁sắn	-12.2478
▁Nhắ	-12.2482
▁1969	-12.2487
EP	-12.249
hành	-12.2491
▁Marc	-12.2491
▁France	-12.2494
▁Xavi	-12.2494
▁1967	-12.2503
Triều	-12.2505
đang	-12.2506
▁nhã	-12.2509
ace	-12.2511
-2:	-12.2512
▁2,1	-12.2514
▁nhằn	-12.2518
▁Blancos	-12.2518
▁VPBank	-12.2518
▁0%	-12.2518
dong	-12.2519
▁Smart	-12.2519
▁ABC	-12.2523
▁EVFTA	-12.2532
Cục	-12.2532
-18	-12.2536
hệ	-12.2537
▁Nỗ	-12.2539
▁sedan	-12.2542
▁Thám	-12.2542
.2019)	-12.2543
▁VHTT	-12.2544
▁Chuối	-12.2544
▁toạ	-12.2546
▁Ram	-12.2548
▁24.7,	-12.255
yn	-12.2555
▁sim	-12.2561
▁Vai	-12.2564
▁lờ	-12.2564
▁Stamford	-12.2567
▁sỡ	-12.2567
▁Sabeco	-12.2571
đặc	-12.2579
▁Mobile	-12.258
ova	-12.2584
▁khoát	-12.2584
hân	-12.2588
▁IU	-12.259
▁Shinawatra	-12.2591
▁LĐBĐ	-12.2591
▁Vinamilk	-12.2594
";	-12.2594
▁Lát	-12.2598
▁vun	-12.2598
▁Giảng	-12.2598
▁10.2021	-12.26
▁you	-12.2607
▁5-0	-12.2611
▁1.100	-12.2612
▁Ti	-12.2613
▁hat	-12.2614
▁Bashar	-12.2616
▁134	-12.2618
Android	-12.2628
Lợi	-12.263
III	-12.2633
▁magiê	-12.2641
▁liveshow	-12.2641
▁Sarri	-12.2641
oài	-12.2642
▁ray	-12.2648
▁tà	-12.2662
▁20.11,	-12.2665
win	-12.2669
▁1980,	-12.267
▁389	-12.2673
ack	-12.2674
▁rốn	-12.268
aka	-12.2683
▁sán	-12.2683
▁CS	-12.2684
▁Ber	-12.2688
▁3,2	-12.2688
▁tốp	-12.2689
-50	-12.2689
▁Wu	-12.2689
▁Luyện	-12.269
▁diệu	-12.269
▁vỗ	-12.269
▁Bra	-12.2692
▁Tràm	-12.2699
PO	-12.2701
Toàn	-12.2703
đồng	-12.2706
lô	-12.271
CV	-12.2713
tor	-12.2715
▁2013.	-12.2715
▁Lượt	-12.2716
▁CNTT	-12.2718
▁Nền	-12.272
ean	-12.2721
ali	-12.2721
.197	-12.2724
▁Chà	-12.2725
▁PVC	-12.2729
▁phốt	-12.2732
▁Vin	-12.2732
Bố	-12.2733
▁stress	-12.274
▁tweet	-12.274
▁giông	-12.274
▁19.3	-12.2751
▁que	-12.2756
Cảm	-12.2759
▁1977	-12.2762
▁Jakarta	-12.2765
▁Vios	-12.2766
▁Bur	-12.2767
▁Best	-12.2782
▁(42	-12.2784
▁3.2021	-12.2784
▁Cor	-12.2788
▁Siam	-12.279
▁30.11,	-12.2794
ót	-12.2796
AIDS	-12.2803
Như	-12.2807
▁120.000	-12.2809
▁Romania	-12.2815
ps	-12.2816
▁gen	-12.2817
▁Dạ	-12.2818
ram	-12.2818
ist	-12.2818
▁ADN	-12.2822
▁27.7,	-12.2823
▁1.7.2021	-12.2827
Phòng	-12.2829
▁14.9,	-12.2832
▁1.2022	-12.2839
▁Football	-12.284
▁Jerome	-12.284
▁VCB	-12.2854
PL	-12.2861
èo	-12.2861
sha	-12.2861
▁tỉa	-12.2861
▁11.2021	-12.2863
▁vụn	-12.2863
1.3	-12.2865
▁Saigon	-12.287
ST	-12.2872
đá	-12.2872
/2016	-12.2881
▁Nhựt	-12.2891
▁Championship	-12.2891
▁2016-2020	-12.2891
▁Phiếu	-12.2892
▁119	-12.2895
if	-12.29
bằng	-12.2905
đất	-12.2907
giai	-12.2908
ột	-12.2915
▁nức	-12.2917
▁7.2021	-12.2917
▁amin	-12.2919
▁Asto	-12.2919
gây	-12.2926
ric	-12.2926
ant	-12.2927
-17	-12.2932
▁(1),	-12.2933
▁Game	-12.2934
▁phàn	-12.2934
▁9.2021	-12.2934
quy	-12.2936
▁cúi	-12.2936
LA	-12.2937
▁Mỏ	-12.294
▁đắm	-12.2942
-14	-12.2945
▁96%.	-12.2945
AD	-12.2955
▁99%	-12.2956
Thu	-12.2957
▁320	-12.2957
▁Mane	-12.2958
-300	-12.2958
EVN	-12.2961
▁Maduro	-12.2967
▁Maradona	-12.2967
Cả	-12.2968
ther	-12.2975
▁1.900	-12.2976
tech	-12.298
.7.2020	-12.2982
▁DA	-12.2984
▁Vn	-12.2985
/8	-12.2986
▁dưng	-12.299
▁Citizens	-12.2992
▁Navalny	-12.2993
▁Swift	-12.2993
▁Panama	-12.2993
▁Thoại	-12.2993
▁Kyli	-12.2993
▁XIX	-12.2994
▁tẻ	-12.2995
▁Hyo	-12.2996
ess	-12.3003
▁21.5,	-12.3005
▁aespa	-12.3018
ọt	-12.3019
iOS	-12.3022
▁330	-12.3023
▁Rap	-12.3027
DA	-12.3034
óp	-12.3037
▁xua	-12.3044
▁Ozil	-12.3044
▁Scott	-12.3044
▁sướng	-12.3044
▁Arena	-12.3044
▁nập	-12.3045
dan	-12.3046
▁MW	-12.3048
▁Fe	-12.3049
▁19.1	-12.306
▁Sai	-12.3066
▁4.8,	-12.307
▁Luận	-12.307
▁Straits	-12.307
▁nêm	-12.3071
dia	-12.3074
▁11.000	-12.3075
▁Sắc	-12.3083
ven	-12.3087
▁Gen	-12.3094
▁Appstore	-12.3096
▁Mohamed	-12.3096
▁nặc	-12.3096
▁mép	-12.3096
▁Pence	-12.3097
▁Ex	-12.3097
/2013/	-12.3099
▁29.12	-12.3099
MW	-12.3106
Ninh	-12.3111
ủa	-12.3111
để	-12.3113
áo	-12.3116
▁Ronald	-12.3121
▁Amsterdam	-12.3122
▁Daegu	-12.3122
▁Sint	-12.3122
▁Cháy	-12.3122
▁bẹp	-12.3122
▁Kịch	-12.3122
▁Clip	-12.3126
▁trút	-12.3134
▁350.000	-12.3136
▁19.3,	-12.3136
đội	-12.3138
▁Pra	-12.3139
▁2.4,	-12.3147
▁Resort	-12.3148
▁Tour	-12.3151
▁Mất	-12.316
ạt	-12.3161
end	-12.3164
▁tao	-12.3172
▁Frankfurt	-12.3174
▁sừng	-12.3174
ling	-12.3176
▁radar	-12.3176
-11	-12.3178
▁nghiền	-12.3178
▁Wan	-12.318
▁Im	-12.3181
▁ON	-12.3185
Á	-12.3188
ại	-12.3199
▁Nations	-12.3201
▁GAS	-12.3203
▁kèo	-12.3203
ICM	-12.3203
CST	-12.322
▁Bỏ	-12.3222
hai	-12.3223
▁Album	-12.3224
▁Steven	-12.323
nguy	-12.323
▁bung	-12.3232
▁14.000	-12.3232
ll	-12.3233
còn	-12.3235
mart	-12.3235
gia	-12.324
ưỡng	-12.3252
▁trổ	-12.3252
▁LED	-12.3253
▁nô	-12.3259
▁8.2020	-12.3262
▁Yoon	-12.3265
RE	-12.3273
lon	-12.3274
Học	-12.3274
ata	-12.3275
▁nần	-12.3279
▁100/2019/	-12.3279
ito	-12.3279
▁nhích	-12.328
▁Sp	-12.3288
▁14.9	-12.3291
▁24.11	-12.3291
▁Tuyệt	-12.3292
▁(43	-12.3292
▁Cánh	-12.3293
▁7.2020	-12.3293
oun	-12.3295
pha	-12.3303
▁TASS	-12.3305
▁Haiti	-12.3309
ón	-12.3311
▁tảo	-12.3317
Assad	-12.3321
đầu	-12.3321
are	-12.3326
LienVietPostBank	-12.3331
▁VNVC	-12.3333
▁18.000	-12.3335
▁(45	-12.3345
▁nhờn	-12.3346
▁váng	-12.3347
▁Flores	-12.3358
▁Philippe	-12.3358
▁Capital	-12.3359
▁Yo	-12.336
ken	-12.3367
ini	-12.3369
▁CPTPP	-12.337
▁lạy	-12.3372
▁Sh	-12.3373
nhiệm	-12.3374
sky	-12.338
▁Louis	-12.3385
▁mỳ	-12.3385
▁Sy	-12.3385
ám	-12.3388
ira	-12.3392
▁TPBank	-12.3398
▁then	-12.34
dar	-12.3404
▁124	-12.3405
iếp	-12.3408
▁Gomez	-12.3411
0.000.000	-12.3412
▁2005,	-12.3416
▁31.12.2020	-12.3417
nhỉnh	-12.3423
Đã	-12.3428
hao	-12.3432
cơn	-12.3433
▁ngo	-12.3434
▁Gabriel	-12.3438
▁cặn	-12.3438
▁ngổn	-12.3438
▁Chải	-12.3439
▁Tỏi	-12.3441
bộ	-12.3443
yu	-12.345
▁lung	-12.345
BHYT	-12.3455
CĐCS	-12.3455
cuộc	-12.3456
▁đốm	-12.3458
▁VP	-12.3458
▁23.7,	-12.3458
ếch	-12.346
▁2019;	-12.3462
▁Thử	-12.3463
▁Mekong	-12.3465
▁Mitsubishi	-12.3465
▁mọng	-12.3465
▁Giẽ	-12.3465
EX	-12.3468
▁Nole	-12.3468
▁Noel	-12.3474
▁thản	-12.348
▁vãn	-12.348
▁tua	-12.3485
▁Pắk	-12.3492
ín	-12.35
.2020)	-12.3503
▁11.2020	-12.3503
▁vỏn	-12.3504
▁Pre	-12.3505
...;	-12.3508
-22	-12.3511
fan	-12.3511
Số	-12.3511
▁ghe	-12.3514
▁Tần	-12.3517
ỷ	-12.3518
▁Monaco	-12.3519
▁24.3,	-12.3533
▁VAT	-12.3533
▁Ty	-12.3534
Kiên	-12.3536
dưới	-12.3536
Mùa	-12.3537
▁2012.	-12.3541
LD	-12.3544
▁chổi	-12.3546
▁KHCN	-12.3546
ER	-12.3547
▁750	-12.3549
▁2015-2020	-12.3551
ach	-12.3551
1.2	-12.3552
olo	-12.3556
▁Gó	-12.3561
Sáng	-12.3563
Nga	-12.3564
NV	-12.3568
▁Buriram	-12.3573
▁Nobel	-12.3573
▁Perez	-12.3573
▁Andrew	-12.3573
vé	-12.3579
▁23.200	-12.3579
NNPTNT	-12.358
▁2.2020	-12.3582
▁XK	-12.3586
GD	-12.3587
-13	-12.3589
Quỳnh	-12.359
Liên	-12.359
▁sưa	-12.3596
tay	-12.3598
▁Mat	-12.3599
▁lẫy	-12.36
▁BH	-12.3602
▁Rafael	-12.3602
▁5.12	-12.3602
000	-12.3618
▁20.10,	-12.3618
ạch	-12.3618
▁Yen	-12.3621
SD	-12.3625
▁lánh	-12.363
▁146	-12.363
▁nga	-12.3636
▁Kai	-12.3643
▁Chen	-12.3644
vợ	-12.3646
▁31.8,	-12.3648
▁0.05	-12.3655
▁Tiêm	-12.3655
tch	-12.3655
▁logistics	-12.3655
út	-12.3659
▁Đưa	-12.3666
▁Lũ	-12.3674
▁Dani	-12.3676
▁Tả	-12.3679
▁quấn	-12.3682
cấp	-12.3691
awa	-12.3693
kỳ	-12.37
▁Lim	-12.3704
▁khét	-12.3709
▁Nắm	-12.3712
úp	-12.3713
uan	-12.3713
Cha	-12.3717
▁8.1,	-12.372
kan	-12.3722
▁1.2020	-12.3723
▁1966	-12.3724
▁ngừ	-12.3726
▁cốp	-12.3728
rat	-12.3728
▁(46	-12.3731
tal	-12.3732
▁(44	-12.3733
▁23.12	-12.3733
▁Jerusalem	-12.3737
▁Mohammed	-12.3737
▁uý	-12.3737
▁Hiên	-12.3737
rus	-12.3738
-150	-12.375
rd	-12.3752
2;	-12.3752
ực	-12.3753
▁cày	-12.3754
▁Martial	-12.3764
▁Thoát	-12.3765
▁dột	-12.3765
▁Dẫn	-12.3766
▁vòm	-12.3767
QL	-12.3768
▁Quyến	-12.3768
▁Khóa	-12.3769
▁0,5%	-12.3773
▁35.000	-12.3774
▁té	-12.3776
▁Hot	-12.3784
▁81%	-12.3795
▁1994	-12.3797
Kết	-12.3798
ae	-12.3799
▁Đấy	-12.3799
▁Chử	-12.38
▁2018-2023	-12.38
▁SĐT	-12.3803
▁nhái	-12.382
▁mượt	-12.382
▁gầy	-12.382
▁HTV	-12.3827
▁90.000	-12.3827
ida	-12.3828
bị	-12.3828
▁Thôn	-12.3847
▁Az	-12.3848
▁Garden	-12.3848
▁Thiều	-12.3848
▁chạp	-12.3848
▁tru	-12.385
▁cộ	-12.3854
▁Porto	-12.3857
▁3.0	-12.3859
▁Bia	-12.3863
iêu	-12.3863
▁xảo	-12.3864
▁12.2019	-12.3866
top	-12.3868
▁(3)	-12.3869
▁BVSC	-12.387
bất	-12.3872
▁Per	-12.3872
ora	-12.3873
▁TTXVN	-12.3876
▁kẹp	-12.3876
▁Nhập	-12.3876
▁HPG	-12.3876
tel	-12.3878
▁Face	-12.3879
▁TNLĐ	-12.3888
▁Vui	-12.3891
Benz	-12.3902
▁ưng	-12.3903
▁Vietlott	-12.3904
▁VssID	-12.3904
▁VinaPhone	-12.3904
▁Martinez	-12.3904
▁Đau	-12.3904
▁beta	-12.3904
▁Lille	-12.3904
▁Hết	-12.3908
▁Lựa	-12.3911
ros	-12.3915
ium	-12.3922
adi	-12.3927
iệc	-12.393
▁Ancelotti	-12.3932
▁Plaza	-12.3932
▁Tòng	-12.3932
▁Roberto	-12.3935
ree	-12.3935
IT	-12.3936
ồ	-12.394
60.000	-12.3942
ec	-12.3944
▁Ngự	-12.3944
▁2020:	-12.3948
▁NTK	-12.3948
▁1/4	-12.3948
loại	-12.3952
▁run	-12.3957
UBTVQH	-12.396
▁Smith	-12.396
▁logic	-12.396
▁App	-12.3961
▁bục	-12.3961
2007	-12.3962
ẩm	-12.3962
▁2018/2019	-12.3964
▁mãnh	-12.3967
▁ve	-12.397
▁11.8	-12.3972
phần	-12.398
Ai	-12.3981
khóa	-12.3982
▁thạo	-12.3988
▁CNVC	-12.3989
▁SCB	-12.3995
Đề	-12.3996
▁5-7	-12.3999
▁11%	-12.4002
▁1960	-12.4002
▁mồng	-12.4003
▁lều	-12.4005
red	-12.4007
avi	-12.4008
▁AR	-12.401
▁174	-12.4011
▁khỏa	-12.4017
▁Online	-12.4017
▁3,4	-12.4017
ase	-12.4018
thay	-12.4019
▁Ngư	-12.4021
/20	-12.4023
▁6-4	-12.404
eng	-12.4044
ky	-12.4044
▁thằng	-12.4045
▁Dar	-12.4048
nic	-12.4049
▁Hag	-12.405
▁Dan	-12.4056
uri	-12.4056
10.000	-12.4058
▁vía	-12.4065
▁Dai	-12.4065
▁12410001122556.	-12.4067
ello	-12.4067
▁Tel	-12.407
▁salad	-12.4074
▁Viêm	-12.4075
▁ạ	-12.4076
▁Holdings	-12.4077
▁HCDC	-12.4083
RA	-12.4088
▁Giọ	-12.4092
▁1.1.2018	-12.4096
▁1973	-12.4099
▁CPI	-12.4102
▁Cấm	-12.4102
▁Rodriguez	-12.4102
▁Slam	-12.4103
▁Tướng	-12.4104
▁Suk	-12.4112
▁20.8,	-12.4116
▁giỏ	-12.4128
▁gym	-12.4131
▁Lazio	-12.4131
ứa	-12.4139
▁137	-12.4144
▁2030.	-12.4146
▁2026.	-12.4147
15:	-12.415
bay	-12.4151
ny	-12.4159
▁VTVcab	-12.4159
▁derby	-12.416
▁giơ	-12.416
ika	-12.4162
▁219	-12.4164
hiết	-12.4168
.2018)	-12.4172
40.000	-12.4175
▁Gar	-12.4179
Vụ	-12.4182
▁Emirates	-12.4188
▁chói	-12.4189
▁xuồng	-12.419
pp	-12.4191
▁Las	-12.4192
▁trá	-12.4193
▁nạt	-12.4196
VS	-12.4199
▁Assad	-12.42
ÁO	-12.4203
▁HH	-12.4205
▁9.2020	-12.4206
ệt	-12.4208
▁Sol	-12.4208
90.000	-12.4212
▁Cốc	-12.4215
▁phộng	-12.4217
▁won	-12.4217
quang	-12.4224
▁Cỏ	-12.4229
▁25.6,	-12.4231
bà	-12.4231
Trên	-12.4239
nhóm	-12.4239
▁1.11,	-12.424
▁Sùng	-12.4246
▁rúp	-12.4247
ort	-12.4249
sai	-12.425
▁Cạnh	-12.425
▁Cừ	-12.4252
▁Joong	-12.4255
▁136	-12.4258
▁Chào	-12.4258
▁Il	-12.4262
ds	-12.4267
bảo	-12.4268
▁Ste	-12.427
▁Health	-12.4275
▁Slovakia	-12.4275
▁Varane	-12.4275
▁thớt	-12.4275
▁BĐBP	-12.4283
▁Life	-12.4284
căn	-12.4291
Ngoài	-12.4297
-25	-12.4299
▁121	-12.4303
▁Christian	-12.4304
▁bừa	-12.4304
▁Selena	-12.4304
▁ngùi	-12.4304
iro	-12.4305
▁sảy	-12.4305
▁phích	-12.431
QG	-12.4311
▁iOS	-12.4317
▁1963	-12.4318
▁Ever	-12.432
▁65%	-12.4322
ục	-12.4326
ME	-12.4327
ele	-12.4328
▁Luôn	-12.4333
au	-12.4334
9,6	-12.4335
▁17-20	-12.4338
nCoV	-12.4341
▁Khẩ	-12.436
▁Thuần	-12.4363
▁bolero	-12.4363
▁dầm	-12.4363
▁Ôtô	-12.4363
▁FBI	-12.4363
▁ảm	-12.4363
▁Thép	-12.4365
▁15-18	-12.4366
▁129	-12.4369
▁En	-12.437
▁3,3	-12.4372
▁EVNCPC	-12.4373
▁12.12	-12.4378
iềm	-12.4379
giáo	-12.4387
7,7	-12.4389
▁William	-12.4391
▁Omega	-12.4392
▁Norwich	-12.4392
▁nhổ	-12.4393
▁phồng	-12.4393
▁Carlos	-12.4394
▁188	-12.4395
▁Ngài	-12.4396
ox	-12.4398
ore	-12.4404
▁2,8	-12.4407
▁Eco	-12.4407
▁vạ	-12.4407
▁lay	-12.4409
ene	-12.4411
thần	-12.4415
▁nhị	-12.4417
ovic	-12.4417
6,5	-12.4421
▁TM	-12.4421
▁găm	-12.4422
▁múc	-12.4423
▁1.6,	-12.4425
ela	-12.4425
▁AQI	-12.4427
▁PT	-12.4433
▁cafe	-12.4434
900	-12.4436
▁122	-12.4436
ội	-12.4437
MD	-12.4444
oy	-12.4451
iều	-12.4451
▁ngấm	-12.4451
▁nhuộm	-12.4451
▁Nicolas	-12.4452
▁Manila	-12.4452
ẫ	-12.4453
▁Yokohama	-12.4455
▁NBC	-12.4455
ạo	-12.446
▁lộng	-12.4463
▁trọt	-12.4467
ole	-12.447
ẹt	-12.4471
▁6-3	-12.4472
âu	-12.4472
▁mau	-12.4481
▁Lũy	-12.4482
▁Dụng	-12.4484
.1.2020	-12.4487
▁(41	-12.4501
-60	-12.4504
sân	-12.4509
▁Ocean	-12.4511
▁Delhi	-12.4511
▁Ivan	-12.4512
TO	-12.4514
▁Joon	-12.4514
▁Dream	-12.4515
▁phôi	-12.4516
des	-12.4517
▁Khoái	-12.4517
cò	-12.4521
sse	-12.4523
▁điếu	-12.4523
▁PA	-12.4529
hạ	-12.4531
▁Binh	-12.4539
▁carbohydrate	-12.4541
▁lầu	-12.4541
▁Thiago	-12.4541
nhân	-12.4541
▁193	-12.4544
chai	-12.455
-2020	-12.4555
ữ	-12.4555
▁Audi	-12.4555
▁Ay	-12.4555
▁BA	-12.4558
rk	-12.4561
▁Chín	-12.4566
2.0	-12.457
▁Gateway	-12.4571
▁xoăn	-12.4571
▁Vlog	-12.4572
▁Luka	-12.4572
ass	-12.4572
La	-12.4576
▁14.6,	-12.458
▁Oh	-12.4585
▁spa	-12.4591
▁VIP	-12.4593
chống	-12.4596
thông	-12.4598
▁Sea	-12.46
▁Prudential	-12.4603
▁24.6	-12.4603
▁Mắt	-12.4605
.2008	-12.4606
sống	-12.4607
▁ươm	-12.4609
▁nón	-12.461
▁Hun	-12.4611
bur	-12.4617
mất	-12.4617
1.1	-12.4618
thực	-12.4624
▁rỗng	-12.4631
▁Gaza	-12.4631
▁Jean	-12.4632
▁Rà	-12.4633
▁Masan	-12.4635
CD	-12.4635
▁rơm	-12.4637
▁Nghề	-12.4637
▁25.6	-12.4643
ánh	-12.4644
BGTVT	-12.4655
bảng	-12.4656
▁phụng	-12.4658
▁vờ	-12.4659
▁Bolero	-12.4661
▁Lingard	-12.4661
▁rảnh	-12.4661
▁ngây	-12.4662
▁mứt	-12.4662
▁gang	-12.4673
thủ	-12.4676
▁BCĐ	-12.4676
ier	-12.468
▁Adam	-12.4689
▁Chùm	-12.4691
▁iPad	-12.4691
▁tuột	-12.4693
▁3.3,	-12.4694
PT	-12.4697
▁TK	-12.4698
▁Tp	-12.4702
ớp	-12.4715
fu	-12.4719
▁(47	-12.4721
▁Pedro	-12.4722
▁10.2017	-12.4724
ssa	-12.4732
▁đực	-12.4752
▁cộm	-12.4759
▁Nano	-12.4765
▁AN	-12.4768
▁2.000.000	-12.477
▁XX	-12.4775
▁4.500	-12.4778
oli	-12.478
8,8	-12.4781
PS	-12.4783
▁corona	-12.4783
▁quặng	-12.4783
▁Golden	-12.4783
▁Tráng	-12.4785
▁2050	-12.4785
▁Bush	-12.4786
▁NV	-12.4786
▁900.000	-12.4788
▁11.8,	-12.4799
▁141	-12.48
▁HN	-12.4802
▁Gra	-12.4807
bỏ	-12.4809
▁muôn	-12.4813
▁Miami	-12.4813
▁Mugabe	-12.4813
1.5	-12.4814
▁Gala	-12.4814
▁Đèo	-12.4815
▁hũ	-12.4818
▁thốt	-12.4819
ave	-12.4823
ua	-12.4824
ảnh	-12.4833
350	-12.4841
▁hả	-12.4841
▁Bê	-12.4844
▁Benfica	-12.4844
▁Netflix	-12.4844
▁gật	-12.4844
▁hửng	-12.4844
▁Eriksen	-12.4844
▁5.3,	-12.4853
150	-12.4854
ship	-12.4856
cầu	-12.4869
▁SM	-12.4873
▁Rằm	-12.4875
▁Tầm	-12.4875
▁thuyên	-12.4875
▁xộn	-12.4875
▁2011.	-12.4882
trụ	-12.4883
▁Bay	-12.4887
-24	-12.4887
ment	-12.4899
▁9.2019	-12.4901
Tăng	-12.4905
éo	-12.4905
Quan	-12.4905
▁Emery	-12.4906
▁shop	-12.4906
▁Wei	-12.4907
ting	-12.4908
▁Mèo	-12.4908
▁Eden	-12.4909
8,7	-12.4916
▁8.2021	-12.4924
▁0,1%	-12.4926
dom	-12.4933
trị	-12.4935
▁Nhiên	-12.4939
ự	-12.4939
▁von	-12.4943
ime	-12.4956
Quỹ	-12.4963
▁vế	-12.4968
▁Southgate	-12.4968
Ca	-12.497
ep	-12.497
▁“1	-12.4973
phi	-12.4977
▁VIC	-12.4977
Man	-12.4993
▁Dembele	-12.5
▁khấn	-12.5
▁rằm	-12.5
3/2014/	-12.5
ski	-12.5004
▁ounce	-12.5005
▁13.000	-12.5007
EN	-12.501
▁Show	-12.5015
▁bún	-12.5017
MI	-12.5021
▁ACV	-12.5021
Xin	-12.5024
▁22.5,	-12.5026
cả	-12.5031
▁Marathon	-12.5031
▁hecta	-12.5031
▁series	-12.5031
▁mè	-12.5031
▁sá	-12.5035
lli	-12.5041
▁quí	-12.5043
▁Niên	-12.5047
▁2021-2022.	-12.505
▁Col	-12.506
▁Bournemouth	-12.5062
▁yoga	-12.5062
▁gò	-12.5063
3.2	-12.508
▁VEC	-12.5085
2,8	-12.5085
hoàn	-12.5091
▁Bartomeu	-12.5094
▁Catalonia	-12.5094
▁Dấu	-12.5094
▁Lucas	-12.5094
▁Séc	-12.5094
▁natri	-12.5094
cô	-12.5096
▁gồng	-12.5097
▁Tray	-12.5098
NC	-12.5104
▁(60	-12.5108
eg	-12.5111
▁24.6,	-12.5112
Voi	-12.5113
▁144	-12.5114
▁24.5,	-12.5118
5,6	-12.5119
▁4.6,	-12.512
▁10.000.000	-12.5125
▁Jesus	-12.5126
▁Libya	-12.5126
▁Sociedad	-12.5126
▁Yamaha	-12.5126
▁nếm	-12.5126
▁vơi	-12.5127
▁16-19	-12.513
ori	-12.5134
TD	-12.5136
▁139	-12.5138
don	-12.5147
▁MI	-12.5148
chuyên	-12.5153
điều	-12.5153
ảo	-12.5154
▁Sứ	-12.5154
▁Ve	-12.5155
▁bikini	-12.5157
▁girl	-12.5157
▁giặc	-12.5157
▁rượt	-12.5157
▁ổi	-12.5159
▁tủy	-12.5165
▁Sar	-12.5168
▁24.5	-12.5169
và	-12.5176
▁Dragon	-12.5187
▁Francisco	-12.5189
ùa	-12.5191
HN	-12.5197
▁Korea	-12.5199
▁10.2018	-12.5199
▁168	-12.5201
DC	-12.5203
Đổi	-12.5216
nhôm	-12.5217
Mua	-12.5218
▁Morning	-12.5221
▁dền	-12.5222
▁5.000.000	-12.5223
▁24/7	-12.5224
▁Tội	-12.5224
thứ	-12.5224
▁Es	-12.523
▁3.2018	-12.5234
rie	-12.5237
▁Port	-12.5245
▁0,2%	-12.5246
Móng	-12.5248
▁1-4	-12.5251
▁(60-75	-12.5253
▁Khashoggi	-12.5253
▁Kuwait	-12.5253
▁Marseille	-12.5253
Giám	-12.5254
▁hùm	-12.5256
pan	-12.5256
Xem	-12.5257
▁đàng	-12.5258
LĐTBXH	-12.526
ama	-12.5264
mở	-12.5269
▁Tốc	-12.527
ẹ	-12.527
ình	-12.5272
?",	-12.5272
UAE	-12.5281
Vợ	-12.5283
▁Mattis	-12.5285
▁Solsa	-12.5285
▁xói	-12.5286
▁Beek	-12.5286
▁biếu	-12.5286
▁ngao	-12.5287
▁That	-12.5289
▁VIB	-12.5289
▁GPLX	-12.529
▁nhai	-12.5293
▁17.000	-12.5295
8,4	-12.5306
▁Dybala	-12.5318
▁Giroud	-12.5318
▁Songkrasin	-12.5318
▁Tedros	-12.5318
▁phở	-12.5318
hiệp	-12.5319
cái	-12.5321
▁Thìn	-12.5323
ử	-12.5326
▁12.2017	-12.5328
▁131	-12.5328
ord	-12.5334
▁4-6	-12.5339
▁4-2	-12.5345
Chiến	-12.5346
▁Derby	-12.535
▁Salman	-12.535
lấp	-12.535
1.7	-12.5351
ừ	-12.5354
▁KT	-12.5355
▁SHS	-12.5355
unning	-12.5355
▁Fan	-12.536
▁Nô	-12.5365
ena	-12.537
6,7	-12.5371
tz	-12.5372
ỹ	-12.5373
AB	-12.5373
▁192	-12.5376
chị	-12.5379
STK	-12.5379
ễn	-12.538
can	-12.538
tạm	-12.5381
▁Lexus	-12.5382
▁mươi	-12.5382
▁richter	-12.5382
▁Morata	-12.5382
Hùm	-12.5383
TE	-12.539
ef	-12.5391
▁bus	-12.5391
Kamala	-12.5394
▁sả	-12.5394
Viet	-12.5398
▁1962	-12.5398
▁Inc	-12.5402
SS	-12.5404
lim	-12.5409
▁Ol	-12.5411
▁Is	-12.5413
uckerberg	-12.5415
▁Azerba	-12.5415
▁Bieber	-12.5415
▁Festival	-12.5415
Truidense	-12.5415
▁Karaoke	-12.5415
▁Werner	-12.5415
▁Mực	-12.5417
▁Mikel	-12.5418
▁Fred	-12.5418
▁be	-12.5424
iti	-12.543
ure	-12.5431
▁1965	-12.5432
▁xỉn	-12.5434
chung	-12.5443
▁mg	-12.5444
Xây	-12.5447
▁Rượu	-12.5448
▁ĐKVĐ	-12.5448
▁vữa	-12.5448
▁Thuấn	-12.5448
▁bịa	-12.5448
▁Pay	-12.5452
▁3.2019	-12.5454
▁sofa	-12.5459
ys	-12.546
▁0,6	-12.5461
▁hen	-12.5463
▁8,5	-12.5467
▁138	-12.5468
▁VF	-12.5472
ste	-12.5476
Messi	-12.5476
▁for	-12.5477
Cẩm	-12.5478
▁Sheffield	-12.548
▁caffeine	-12.5481
▁Will	-12.5495
▁Tóc	-12.5496
▁cuống	-12.5498
ance	-12.5501
▁1.1.2020	-12.5508
Hòa	-12.5509
▁Arizona	-12.5513
▁Jeonbuk	-12.5513
▁gập	-12.5514
▁code	-12.5515
Gà	-12.552
.2009	-12.5521
ola	-12.5521
▁Bơ	-12.5522
▁"3	-12.5524
▁14%	-12.5526
stan	-12.5526
▁3-4.	-12.5527
▁Butter	-12.5528
▁36,5	-12.5531
▁Motor	-12.5532
BLĐTBXH	-12.5534
▁LG	-12.5542
Phát	-12.5543
▁2010.	-12.5543
▁Melania	-12.5546
▁ấu	-12.5546
▁Hassan	-12.5546
▁gắp	-12.5547
▁Alexandre	-12.5548
▁tám	-12.5549
ện	-12.555
▁SA	-12.5559
ới	-12.556
ược	-12.556
▁Don	-12.5563
▁Gai	-12.5566
▁ói	-12.5571
▁Ros	-12.5571
HCDC	-12.5579
▁Kyrgyzstan	-12.5579
▁cạo	-12.558
▁xóc	-12.5581
▁xiết	-12.5581
▁ngói	-12.5582
▁úp	-12.559
ls	-12.5592
▁Cồn	-12.5593
▁BL	-12.5605
ory	-12.5607
▁Junior	-12.5613
▁Carolina	-12.5613
▁chắt	-12.5613
▁Biện	-12.5614
▁19.1,	-12.5615
Phúc	-12.5617
vàng	-12.5618
▁sào	-12.5621
▁1964	-12.5626
-19”.	-12.5627
giữ	-12.5631
vis	-12.5635
Giá	-12.5635
ras	-12.5636
▁Catalan	-12.5646
▁Trộn	-12.5646
▁trói	-12.5646
▁Niềm	-12.5648
▁NHM	-12.5649
▁(49	-12.565
iko	-12.5653
bom	-12.5653
▁nhét	-12.5654
▁Cr	-12.5661
▁Kan	-12.5662
▁bồ	-12.5665
▁Mag	-12.5668
▁Val	-12.5674
▁ngả	-12.5677
sin	-12.568
▁trầy	-12.568
▁Gỗ	-12.5683
▁Sta	-12.5684
▁2017)	-12.5689
eck	-12.5691
ý	-12.5695
▁340	-12.5696
▁Sal	-12.5701
▁Steve	-12.5709
▁mận	-12.5713
▁tậu	-12.5713
tre	-12.5719
▁ThS	-12.5719
▁len	-12.5719
▁Girls	-12.5719
▁94%	-12.5723
ồn	-12.5725
▁nạc	-12.5725
▁18%	-12.573
ise	-12.5731
illa	-12.5741
Thiếu	-12.5744
imbabwe	-12.5747
▁Town	-12.5747
▁Kante	-12.5747
▁méo	-12.5747
BTNMT	-12.5751
▁2020-2021.	-12.5761
kar	-12.5766
ẵn	-12.578
▁VJ	-12.578
▁gáy	-12.5781
▁giầy	-12.5781
▁2-1.	-12.5782
▁rôn	-12.5782
▁Màu	-12.579
▁rập	-12.5793
▁râu	-12.5795
▁vung	-12.5799
mức	-12.58
/19	-12.5801
▁Mer	-12.5807
▁Catalunya	-12.5814
▁múi	-12.5814
▁Triết	-12.5816
rom	-12.5816
8/2020/	-12.5816
▁Tower	-12.5816
▁cu	-12.5816
iệt	-12.5821
▁HU	-12.5826
EM	-12.5827
▁Au	-12.583
mes	-12.5832
▁rỗi	-12.5833
port	-12.5846
▁IELTS	-12.5848
▁resort	-12.5848
▁nylon	-12.5848
erezo	-12.5848
▁cuốc	-12.5848
Co	-12.5849
▁Địch	-12.5849
▁giun	-12.5849
▁Oceanbank	-12.5851
▁trailer	-12.5853
eb	-12.5853
▁9-10	-12.5855
Nhưng	-12.5857
Kim	-12.5858
▁Wal	-12.5858
▁22%	-12.5863
▁Petro	-12.5864
9,4	-12.5868
val	-12.5872
▁khoái	-12.5875
met	-12.5878
CSGT	-12.588
▁thon	-12.5881
▁bitcoin	-12.5882
Trộm	-12.5882
▁vãi	-12.589
▁(48	-12.5892
mu	-12.5893
oon	-12.5895
hỗ	-12.5897
▁Yeon	-12.5898
▁4,3	-12.59
úa	-12.59
▁Gà	-12.5901
▁Wa	-12.5904
ãn	-12.5904
1,2	-12.5906
▁Mù	-12.5908
SO	-12.591
iss	-12.5912
Thừa	-12.5914
Hoàn	-12.5915
▁Idol	-12.5917
▁cẳng	-12.5917
▁ghẻ	-12.5917
tình	-12.5917
eri	-12.5921
▁Gương	-12.5933
▁3,8	-12.5934
▁24.11,	-12.5942
▁na	-12.5945
OI	-12.5946
long	-12.5949
▁Phil	-12.5949
▁2,0	-12.595
lor	-12.5951
▁Donbass	-12.5951
▁diều	-12.5952
▁Matt	-12.5953
cắt	-12.5959
▁tràm	-12.5967
lạ	-12.5969
ỗi	-12.5976
?”,	-12.5979
▁VH	-12.5979
CK	-12.598
1,6	-12.5985
▁Lường	-12.5988
▁Vinaca	-12.5989
nedine	-12.5993
▁Gang	-12.5994
lly	-12.5996
▁Simon	-12.6001
▁Hit	-12.6001
ước	-12.601
▁Ak	-12.6015
-01	-12.6017
▁185	-12.6017
.4.2022	-12.602
▁Journal	-12.602
▁Roger	-12.602
ớt	-12.6021
ary	-12.6023
▁148	-12.6026
▁ACB	-12.6028
▁12.2018	-12.6032
▁Brom	-12.6032
8,9	-12.6036
hô	-12.6043
DS	-12.6046
▁Bali	-12.6049
thẻ	-12.6053
▁flavonoid	-12.6055
▁Brentford	-12.6055
▁lép	-12.6055
▁sạp	-12.6056
▁chòi	-12.6057
carotene	-12.6057
▁Meta	-12.6057
▁Sina	-12.6059
▁Joo	-12.6064
▁Lãm	-12.6069
2,3	-12.6074
▁4.2018	-12.6075
▁13%	-12.6075
▁lũng	-12.6081
▁10.2019	-12.6086
RT	-12.6086
Toán	-12.6088
▁Clinton	-12.609
▁Spotify	-12.609
▁Mịch	-12.6091
▁ốp	-12.6091
▁Free	-12.6093
▁Huyên	-12.6095
▁Hổ	-12.6097
nghi	-12.61
▁oi	-12.6103
▁ếch	-12.6104
ks	-12.6118
GS	-12.6118
▁3.2022	-12.6119
ook	-12.6123
▁chánh	-12.6124
▁Bưởi	-12.6125
▁Netanyahu	-12.6125
▁Oxford	-12.6125
▁socola	-12.6125
Tiếng	-12.6125
▁cẩm	-12.6125
▁Vincom	-12.6125
ếu	-12.6129
▁chích	-12.6131
In	-12.6134
ỏi	-12.6136
▁Bính	-12.6139
▁3,0	-12.6148
▁2020”	-12.6148
▁MA	-12.6154
▁4,2	-12.6154
sp	-12.6155
▁Bội	-12.6157
-2021	-12.6158
▁thâ	-12.6158
▁Olympia	-12.6159
vào	-12.6159
▁Tọa	-12.616
▁giỗ	-12.616
▁Khmer	-12.616
▁lút	-12.6161
Lâm	-12.6162
-2019	-12.6163
của	-12.6163
▁Express	-12.6165
SP	-12.6165
▁9.2018	-12.6169
ụt	-12.6171
.3.2021	-12.6174
▁CV	-12.6181
uma	-12.6188
ius	-12.6191
HĐND	-12.6193
chiếc	-12.6194
Chí	-12.6195
▁Bangladesh	-12.6195
▁Molnupiravir	-12.6195
▁Geneva	-12.6195
▁hacker	-12.6196
▁khiết	-12.6198
FC	-12.6201
▁ru	-12.6201
▁450.000	-12.6208
-27	-12.6215
OM	-12.6223
▁Ibrahimovic	-12.623
▁HĐTV	-12.623
▁lầy	-12.6231
phát	-12.6231
▁6.9,	-12.6232
▁Luông	-12.6233
▁149	-12.624
▁2,9	-12.625
▁11.2018	-12.6261
▁Donetsk	-12.6266
▁Website	-12.6266
▁Cự	-12.6266
BNV	-12.6267
▁Sàn	-12.6267
▁5.2018	-12.6267
TKCN	-12.6271
war	-12.6275
▁Bor	-12.6275
▁Nhớ	-12.6276
BT	-12.6276
▁Germain	-12.6284
KL	-12.6284
▁Hotel	-12.6286
ea	-12.6297
leo	-12.6298
▁16.000	-12.63
ona	-12.63
▁gọt	-12.6302
young	-12.6302
▁mẩn	-12.6303
▁thừng	-12.6303
▁2019:	-12.6303
▁Barr	-12.6317
ạc	-12.6318
▁mu	-12.6319
▁157	-12.6319
▁2028	-12.632
bố	-12.6321
▁850	-12.6322
US	-12.6331
phòng	-12.6336
Mình	-12.6337
▁Fulham	-12.6337
▁Nghỉ	-12.6337
▁Tillerson	-12.6337
▁hoay	-12.6337
▁Lỗ	-12.6338
▁Sergey	-12.6339
▁3,7	-12.634
▁(0	-12.6345
▁SMS	-12.6346
▁6.2019	-12.6347
nan	-12.6347
30.000	-12.6353
▁Liu	-12.6358
▁WB	-12.6358
▁ATTP	-12.636
▁ố	-12.6363
0)	-12.6364
▁215	-12.6366
▁mangan	-12.6368
▁151	-12.637
▁trĩ	-12.6373
▁Miện	-12.6374
▁BRT	-12.6376
▁Jr	-12.6377
7,8	-12.6377
ướng	-12.638
▁Marco	-12.6382
ile	-12.6387
ĐK	-12.6388
0,8	-12.639
▁hanh	-12.639
3,4	-12.6391
▁Huynh	-12.64
▁QG	-12.6403
-28	-12.6404
ins	-12.6404
BioNTech	-12.6408
▁Dae	-12.6408
▁Melinda	-12.6409
▁Soleimani	-12.6409
kha	-12.641
▁Mâu	-12.6411
tiếp	-12.6412
▁thệ	-12.6412
▁Măng	-12.6413
▁nhào	-12.6414
▁Food	-12.6416
hong	-12.6417
hói	-12.6417
▁9%	-12.642
▁2045	-12.6421
▁3,1	-12.6423
▁QU	-12.6423
▁Kháng	-12.6427
Quá	-12.6431
▁thà	-12.6431
ien	-12.6434
▁7.6,	-12.6439
vel	-12.6442
Trưởng	-12.6444
▁Hamilton	-12.6445
Đường	-12.6445
▁194	-12.6445
-2018	-12.6447
lad	-12.6449
biến	-12.6453
rit	-12.6457
1,8	-12.6457
pop	-12.6459
▁Hanh	-12.6461
▁Đón	-12.6463
▁Bỉm	-12.6463
ries	-12.6473
RC	-12.6476
VE	-12.6478
rop	-12.648
▁Melbourne	-12.6481
▁Sào	-12.6481
▁MSN	-12.6484
▁Mễ	-12.6484
CM	-12.6486
▁Khúc	-12.6487
▁Đổng	-12.6488
▁Thục	-12.6488
én	-12.6502
▁Sanh	-12.6502
▁chư	-12.6507
▁Hạm	-12.6517
▁Đak	-12.6517
▁Henderson	-12.6518
▁Airbus	-12.6518
▁hắt	-12.6518
▁check	-12.6519
▁133	-12.6519
suke	-12.652
7%)	-12.6521
▁NA	-12.653
bon	-12.6536
-19...	-12.6536
▁737	-12.6544
ởi	-12.6547
▁156	-12.6549
ứng	-12.6552
▁Antoine	-12.6554
▁PouYuen	-12.6554
▁folate	-12.6554
▁Bung	-12.6555
▁Rừng	-12.6556
.500.000	-12.6557
▁6.2018	-12.6558
▁Code	-12.6559
▁KCX	-12.6565
ười	-12.6566
oom	-12.6568
ple	-12.6571
▁Gil	-12.6572
▁Para	-12.6576
▁Túc	-12.6577
dd	-12.6583
▁rap	-12.659
▁Minzy	-12.6591
▁Nguyện	-12.6591
▁Ser	-12.6593
▁Business	-12.6594
▁2.2021	-12.6602
ủng	-12.6608
▁Hill	-12.6613
▁bai	-12.6615
▁VNĐ	-12.662
▁Ngo	-12.662
▁Valverde	-12.6627
▁boxing	-12.6627
▁Kelly	-12.6628
Chị	-12.6628
Vua	-12.6629
▁hất	-12.6629
▁SeABank	-12.6632
▁Hanoi	-12.6634
quả	-12.6635
▁At	-12.6639
Vietnam	-12.6645
▁Sin	-12.6656
▁OCOP	-12.6664
▁Sinopharm	-12.6664
▁lười	-12.6665
tar	-12.6672
-26	-12.6673
▁Angel	-12.6676
▁4,8	-12.6683
▁11.2017	-12.6688
6,8	-12.6691
▁1.2018	-12.6694
▁Tơ	-12.6696
cây	-12.6696
DI	-12.6697
ẳ	-12.6701
▁Central	-12.6701
▁EXO	-12.6701
▁Istanbul	-12.6701
▁Michigan	-12.6701
▁đẫm	-12.6701
Hẹn	-12.6702
chồng	-12.6703
▁2024.	-12.6705
sia	-12.6706
▁Mas	-12.6706
▁247	-12.6706
8,0	-12.6714
▁phách	-12.6718
pin	-12.6732
▁Bilbao	-12.6739
Tiền	-12.6739
▁hydro	-12.6739
1,7	-12.6742
pho	-12.6742
▁BSC	-12.6743
lf	-12.6744
▁Bột	-12.6757
▁199	-12.6762
her	-12.6773
Quốc	-12.6777
bão	-12.6777
ett	-12.6777
/2014	-12.6786
▁Đê	-12.6792
▁phai	-12.6796
EA	-12.6799
/63	-12.6799
hử	-12.68
LS	-12.6802
▁Chỉnh	-12.6802
▁2019-2020.	-12.6802
▁Voi	-12.6803
▁93%	-12.6806
.2017)	-12.6807
ble	-12.6811
Ra	-12.6812
6,6	-12.6813
▁197	-12.6813
▁Corolla	-12.6813
▁Curacao	-12.6813
▁Elizabeth	-12.6813
▁Moscow	-12.6813
▁rót	-12.6814
▁khay	-12.6814
Siêu	-12.6815
▁9,5	-12.6817
▁Rông	-12.6821
khó	-12.6821
won	-12.6824
▁16%	-12.6826
▁Ah	-12.683
▁Xung	-12.6835
▁0021000303088;	-12.6836
▁11.2019	-12.6837
▁Ab	-12.684
▁Pồ	-12.6841
side	-12.6844
▁cứa	-12.6849
▁nhang	-12.6849
▁Pen	-12.6849
cia	-12.685
▁Becamex	-12.6851
▁Hawaii	-12.6851
▁Volodymyr	-12.6851
lam	-12.6851
▁trót	-12.6851
▁Miễu	-12.6851
tiểu	-12.6852
▁Bôi	-12.6852
▁152	-12.6854
▁ngách	-12.6854
▁Đạ	-12.6859
▁176	-12.6861
▁98%	-12.6864
▁8.2018	-12.6867
rock	-12.6871
▁158	-12.6877
enko	-12.6877
rey	-12.6881
▁2018;	-12.6883
▁Vàm	-12.6884
▁luỹ	-12.6889
▁Bolton	-12.6889
▁Virus	-12.6889
Nguyễn	-12.689
▁ơ	-12.6891
Gã	-12.6891
ney	-12.6891
▁Omar	-12.6893
▁go	-12.6897
▁Nor	-12.6899
▁0,8	-12.69
▁Vé	-12.69
▁xén	-12.6901
▁Erik	-12.6902
▁Ven	-12.6902
▁Pop	-12.6903
▁Khen	-12.6904
▁Motors	-12.6905
▁0,3%	-12.6907
lov	-12.6907
PHS	-12.6908
▁bết	-12.691
▁Pat	-12.691
Cá	-12.6911
▁17%	-12.6914
wo	-12.6917
▁Brad	-12.6923
▁Mel	-12.6926
▁ruồi	-12.6927
▁Charles	-12.6927
HAGL	-12.6928
thường	-12.6928
▁Hinh	-12.6929
▁167	-12.6929
vì	-12.693
chúng	-12.6931
▁23.12,	-12.6932
▁178	-12.6934
▁ngó	-12.6937
▁Lanka	-12.6943
▁12,5	-12.6947
.6.2021	-12.6948
▁2018-2023.	-12.6954
2.1	-12.6955
▁Tức	-12.6958
BCĐ	-12.6959
▁KB	-12.6961
RO	-12.6964
▁Laporta	-12.6965
▁ầm	-12.6965
▁nhện	-12.6965
▁VHM	-12.6966
Chuyến	-12.6966
▁Áng	-12.6966
Ngân	-12.6966
chiều	-12.6966
▁4,6	-12.6967
▁Lọc	-12.6967
▁cù	-12.6969
▁Khái	-12.697
sổ	-12.6973
oe	-12.698
▁5.2019	-12.6983
▁cau	-12.6988
▁Ok	-12.699
▁Hôn	-12.6993
▁dê	-12.6997
▁142	-12.6998
▁Ardern	-12.7003
▁Firmino	-12.7003
▁Tận	-12.7003
▁Metro	-12.7003
▁xắn	-12.7003
▁Lên	-12.7011
▁Santa	-12.7012
▁Sc	-12.7013
▁She	-12.7014
old	-12.7019
▁photo	-12.702
XX	-12.7026
lat	-12.7031
▁380	-12.7033
burg	-12.7033
▁vali	-12.7035
▁Par	-12.7035
sak	-12.7035
▁(1)	-12.704
▁Leverkusen	-12.7041
▁điềm	-12.7041
▁Sướng	-12.7043
ẫn	-12.7044
▁Lí	-12.7045
▁Chiêm	-12.705
▁Rang	-12.7057
▁22.000	-12.7058
tham	-12.7058
▁NCT	-12.7058
▁189	-12.7062
▁Mala	-12.7066
▁6-0	-12.7066
4,8	-12.7069
ous	-12.7074
▁Jetstar	-12.708
▁Vững	-12.708
▁Thiệt	-12.708
ưng	-12.7093
▁vệt	-12.7094
.8,	-12.7095
▁(4)	-12.7103
▁trơ	-12.7108
▁Ecuador	-12.7118
▁Simeone	-12.7118
▁níu	-12.7118
▁taluy	-12.7118
▁sụn	-12.7118
▁gỉ	-12.7118
▁Thuyền	-12.712
Điện	-12.712
sch	-12.7121
▁Nick	-12.7124
▁Lei	-12.7133
/2022/	-12.7136
▁Leo	-12.7136
▁Tro	-12.7144
▁Lũng	-12.7147
▁Noo	-12.7151
let	-12.7151
▁Thác	-12.7154
▁dặm	-12.7157
▁Queen	-12.7157
▁Center	-12.7157
▁Brent	-12.7157
Phụ	-12.7159
vượt	-12.7159
Mục	-12.716
▁Dynamite	-12.717
▁Time	-12.7172
▁8.2017	-12.7173
▁Lành	-12.7176
tối	-12.7179
xa	-12.718
▁1407	-12.7181
▁143	-12.7182
Lạ	-12.7183
Su	-12.7184
họ	-12.7185
▁162	-12.7187
▁(52	-12.719
trả	-12.7193
▁si	-12.7193
▁Ferrari	-12.7196
▁Sinovac	-12.7196
Giờ	-12.7198
▁phình	-12.7199
▁Wil	-12.72
▁177	-12.7214
▁180.000	-12.7219
▁Kè	-12.7222
▁Mun	-12.7229
.4.2021	-12.723
nin	-12.7231
▁Paraguay	-12.7235
▁Trồng	-12.7235
Doanh	-12.7238
▁Caosu	-12.7238
eda	-12.7239
▁29.12,	-12.7241
▁Shar	-12.7243
▁NXB	-12.7244
spot	-12.7244
▁cồng	-12.7247
BTS	-12.7257
▁golfer	-12.7261
hợp	-12.7263
▁nhọ	-12.7264
▁Victor	-12.7272
CHDCND	-12.7274
▁Diamond	-12.7274
▁Theresa	-12.7274
▁White	-12.7274
chệch	-12.7274
▁oải	-12.7274
▁lứt	-12.7274
Điểm	-12.7277
▁Den	-12.7279
▁lìa	-12.7281
tha	-12.7286
av	-12.7287
gue	-12.7287
COV	-12.7291
▁Shaw	-12.7295
▁7.2019	-12.7306
lle	-12.7308
▁ximăng	-12.7313
▁Patrick	-12.7314
5,8	-12.7316
▁uất	-12.7316
treo	-12.7318
ence	-12.7324
ích	-12.7327
▁Mart	-12.7328
▁55%	-12.7329
▁1980	-12.7329
2,6	-12.733
▁222	-12.7334
▁Kr	-12.7337
▁bái	-12.734
▁GT	-12.7343
▁Innova	-12.7345
3,3	-12.7348
▁203	-12.7349
cin	-12.7349
▁YSVN	-12.735
▁Boldsky	-12.7353
▁SIM	-12.7353
▁BLLĐ	-12.7353
▁Đuống	-12.7353
▁mẫn	-12.7354
▁4,0	-12.7354
▁Seung	-12.7354
▁mửa	-12.7354
▁147	-12.7356
YSVN	-12.7356
iya	-12.7362
▁225	-12.7362
ă	-12.7362
▁6-2	-12.7367
▁Ana	-12.7369
hổ	-12.7378
▁2.200	-12.7381
▁4.2019	-12.7383
ati	-12.7383
SV	-12.7385
▁năn	-12.7392
▁Nissan	-12.7393
▁kiểng	-12.7393
fl	-12.7396
org	-12.7397
Giấc	-12.7397
▁Chiêu	-12.74
▁Truyện	-12.74
BCH	-12.7401
3.4	-12.7406
eat	-12.7408
ượng	-12.7411
iệu	-12.7416
▁Dao	-12.7418
▁òa	-12.7433
▁Cross	-12.7433
▁Betis	-12.7433
▁Kuala	-12.7433
▁sếp	-12.7433
▁Rock	-12.7435
ding	-12.7435
ảy	-12.7435
Italia	-12.7436
Dragon	-12.7436
▁Ken	-12.7436
▁Đế	-12.7438
▁Lake	-12.7443
▁Spa	-12.7444
▁Thiền	-12.7448
▁Gal	-12.7448
▁stream	-12.7448
uz	-12.7448
▁Ths	-12.745
▁Cắt	-12.7455
▁kền	-12.7458
ral	-12.7459
▁Andrea	-12.7463
hướng	-12.7464
▁rating	-12.7471
▁Athletic	-12.7473
▁Lumpur	-12.7473
▁Nấm	-12.7473
▁Stephen	-12.7473
▁re	-12.7473
ose	-12.7474
▁gờm	-12.7474
▁tẩm	-12.7475
đoàn	-12.7476
▁Mason	-12.7477
▁MMA	-12.7478
ford	-12.7479
▁(200	-12.7482
▁CEP	-12.7483
ET	-12.7487
▁Sống	-12.7487
▁Cẩn	-12.7488
▁Miu	-12.7493
Thế	-12.7496
eli	-12.7497
bert	-12.7507
▁1.2019	-12.7508
▁Kit	-12.7511
▁Rouhani	-12.7513
▁GTGT	-12.7513
▁Greenwood	-12.7513
▁thắm	-12.7513
▁kiêu	-12.7513
▁Tầng	-12.7514
▁420	-12.7516
Tuần	-12.7516
▁Os	-12.7518
▁nung	-12.7519
▁Rose	-12.7521
chất	-12.7521
▁6,7	-12.7524
▁UBCKNN	-12.7526
▁Vero	-12.7535
▁Thả	-12.754
8,6	-12.7541
▁Pri	-12.7552
▁Getafe	-12.7553
▁5.12,	-12.7553
▁Rooney	-12.7553
▁phiện	-12.7554
▁National	-12.7555
Cùng	-12.7557
rov	-12.7559
Sao	-12.7561
▁68/	-12.7561
▁Gửi	-12.7567
▁gel	-12.7568
-29	-12.757
▁PM	-12.7592
▁nướu	-12.7593
▁xiếc	-12.7594
▁Sara	-12.7594
▁Carlo	-12.7595
FI	-12.7596
▁153	-12.7597
trung	-12.7598
▁Nhai	-12.7598
▁216	-12.7599
▁Kei	-12.76
▁CD	-12.7609
▁Túy	-12.7611
▁Nhấ	-12.7614
▁Marca	-12.7622
▁Andre	-12.7622
▁All	-12.7623
▁DJ	-12.7625
▁MT	-12.7626
▁186	-12.7631
▁BANK	-12.7634
▁Starship	-12.7634
▁gold	-12.7634
ich	-12.7635
▁mịt	-12.7635
▁0-4	-12.7638
CCCD	-12.7638
lip	-12.7639
▁Uni	-12.764
▁26.000	-12.7644
▁mỉm	-12.7647
210	-12.7656
▁nham	-12.7657
▁(51	-12.766
▁CNA	-12.7663
▁Men	-12.7675
▁Bulgaria	-12.7675
▁Dậu	-12.7675
▁Felix	-12.7675
▁Wembley	-12.7675
▁đùm	-12.7675
▁Henry	-12.7675
▁Guam	-12.7675
▁2016-2017	-12.7675
▁Jeong	-12.7678
▁Gừng	-12.7678
4,6	-12.7678
Kon	-12.7682
▁Nốt	-12.7683
▁7.2018	-12.7685
▁Lux	-12.7692
▁North	-12.7697
▁lẻo	-12.7698
eco	-12.7699
chan	-12.7713
▁Beckham	-12.7716
▁Thận	-12.7716
▁Doodle	-12.7716
▁selen	-12.7716
▁rưng	-12.7716
ob	-12.7716
▁Lưới	-12.7717
▁Futures	-12.7717
▁Kyung	-12.7719
4-37	-12.772
Viettel	-12.772
khách	-12.7722
▁Gan	-12.7726
▁This	-12.7726
cửa	-12.7728
nk	-12.7733
▁Cáo	-12.7733
TX	-12.7737
▁Kam	-12.774
▁6-1	-12.7741
dro	-12.775
tsu	-12.7751
1,3	-12.7753
MB	-12.7753
▁mRNA	-12.7757
▁Weibo	-12.7757
▁290	-12.7758
▁3.000.000	-12.776
▁Deir	-12.7767
250	-12.7775
▁Alexe	-12.7779
▁195	-12.7785
▁Chàng	-12.7785
▁23.5.	-12.7786
▁45.000	-12.7786
▁Char	-12.7788
▁1950	-12.7789
Vũ	-12.7796
▁Olivi	-12.7798
▁vẫy	-12.7798
▁Today	-12.7799
▁nude	-12.7799
▁Joao	-12.7799
▁acid	-12.7799
▁Giồng	-12.7799
▁Thăm	-12.7799
▁12.12,	-12.78
▁lóc	-12.78
▁370	-12.7801
Phương	-12.7803
dal	-12.7806
▁bina	-12.7807
-21	-12.7809
▁(53	-12.7811
UN	-12.7812
AF	-12.7816
sis	-12.7817
pol	-12.7819
So	-12.782
▁roi	-12.7821
ere	-12.7822
▁Ky	-12.7822
assi	-12.7832
6,9	-12.7836
lao	-12.7837
▁Courtois	-12.784
▁Johnny	-12.784
▁Muối	-12.7841
▁Đước	-12.7841
▁Dưỡng	-12.7842
Nét	-12.7843
Xuân	-12.7845
▁lon	-12.7846
▁1/500	-12.785
wat	-12.7853
ring	-12.7856
▁Hạc	-12.7856
7,6	-12.7859
▁HCĐ	-12.7859
▁ri	-12.786
yle	-12.7866
GP	-12.787
▁Op	-12.7874
247	-12.7874
ém	-12.7879
▁Lặc	-12.7882
▁magie	-12.7882
▁Fortuner	-12.7882
▁rình	-12.7882
▁chội	-12.7882
of	-12.7883
▁Diêm	-12.7885
phe	-12.7886
Phải	-12.7887
▁Hố	-12.7887
▁FT	-12.7887
▁Hắc	-12.7889
Đi	-12.789
lên	-12.789
▁Treo	-12.7893
CE	-12.7894
tai	-12.7912
tis	-12.7917
▁Borussia	-12.7923
▁Đính	-12.7923
▁Suez	-12.7924
▁Palm	-12.7925
▁Mega	-12.7927
Philippines	-12.7929
IP	-12.7929
▁159	-12.793
▁CTG	-12.7932
lar	-12.7936
▁pa	-12.7941
hoa	-12.7945
.7,	-12.7947
2,7	-12.7947
▁214	-12.7954
▁dí	-12.7954
▁Pirlo	-12.7965
▁catwalk	-12.7965
▁Alisson	-12.7966
▁bẩy	-12.7969
▁Lạ	-12.797
Đừng	-12.7972
lá	-12.7973
7,9	-12.798
pen	-12.7982
▁166	-12.7984
▁4,4	-12.7987
▁Mad	-12.7987
▁Rome	-12.799
2,4	-12.7991
ghi	-12.7992
anda	-12.7994
▁NT	-12.7996
▁hệt	-12.7997
▁Del	-12.8001
▁5,2	-12.8002
tam	-12.8002
▁202	-12.8003
ping	-12.8007
▁chắp	-12.801
▁tơi	-12.8014
Báo	-12.8015
giao	-12.8015
▁Làn	-12.8017
▁2.300	-12.8018
oid	-12.8018
FS	-12.8019
PR	-12.8019
▁1958	-12.8026
▁Jang	-12.8028
tín	-12.8029
khá	-12.8032
▁Quê	-12.8034
▁xoang	-12.8038
▁củi	-12.804
▁20.000.000	-12.8045
▁Crimea	-12.805
▁Disney	-12.805
▁dằn	-12.805
▁margin	-12.805
▁sảo	-12.8052
▁Dance	-12.8052
▁chuộc	-12.8053
▁14-17	-12.8053
▁HĐ	-12.8054
sport	-12.8055
Chuyện	-12.8055
vòng	-12.8056
▁Bon	-12.8056
▁Karik	-12.8058
abi	-12.8062
▁Suy	-12.8064
▁Not	-12.8066
▁UB	-12.8068
2.2	-12.8069
▁5.500	-12.807
BD	-12.8071
yeon	-12.8077
1.9	-12.8078
8.7	-12.8081
▁163	-12.8083
▁Sim	-12.8087
▁chao	-12.8089
rid	-12.8091
▁2021-2030	-12.8093
▁Trudeau	-12.8093
tte	-12.8093
▁Alexis	-12.8093
▁dơi	-12.8094
▁Thâm	-12.8094
▁suyễn	-12.8094
▁Thước	-12.8095
chen	-12.8096
▁Mừng	-12.8097
▁BIC	-12.8102
cal	-12.8106
ith	-12.8106
ning	-12.8106
▁9.2017	-12.811
▁ngục	-12.8117
Sống	-12.8118
lanh	-12.8124
▁Up	-12.813
▁Hubble	-12.8135
▁AVG	-12.8135
verev	-12.8136
▁Store	-12.8136
▁Cuông	-12.8136
▁rèm	-12.8137
▁Alli	-12.8138
Nhìn	-12.8141
▁Khan	-12.8142
03)	-12.8145
▁205	-12.8145
4,4	-12.8146
Ro	-12.8147
▁1990)	-12.8149
▁Tass	-12.8151
▁1993)	-12.8154
▁Đủ	-12.816
hop	-12.8164
▁VNM	-12.8177
▁Khổng	-12.8178
▁Siberia	-12.8178
▁dẳng	-12.8178
▁teaser	-12.8178
▁CIA	-12.8178
▁chùi	-12.8178
▁LHPN	-12.8179
▁Cell	-12.818
had	-12.818
▁tép	-12.8181
quá	-12.8182
car	-12.8184
Trận	-12.8184
Vào	-12.8185
Tuyên	-12.8187
kết	-12.8188
shu	-12.8198
hồi	-12.82
▁tí	-12.8209
▁RS	-12.8211
3,8	-12.8214
▁Enrique	-12.8221
▁Guinea	-12.8221
▁Hakim	-12.8221
▁Miễn	-12.8222
▁Thuyết	-12.8223
bl	-12.8223
▁Sporting	-12.8223
▁húc	-12.8224
QLTT	-12.8229
▁ngủi	-12.8231
▁Mount	-12.8231
▁Vol	-12.8233
▁10-11	-12.8235
Cà	-12.8235
ville	-12.8238
▁Jen	-12.8245
▁phen	-12.8252
▁Bre	-12.8254
môn	-12.8255
...),	-12.8256
▁SXH	-12.8261
▁Ulsan	-12.8265
GT	-12.8266
▁nom	-12.8266
-2017	-12.8267
▁Tayy	-12.8272
▁Ter	-12.8274
▁Main	-12.8275
-500	-12.8285
▁AB	-12.8286
▁thê	-12.8287
▁tủi	-12.8294
▁FDA	-12.8295
▁sảng	-12.8299
▁thề	-12.8302
▁217	-12.8303
▁glucose	-12.8308
▁phớt	-12.8308
▁TNCS	-12.8308
▁Rica	-12.8309
▁THI	-12.8313
▁Kids	-12.8313
Chung	-12.8316
cher	-12.8317
▁154	-12.8317
9,7	-12.8318
gram	-12.8319
▁vảy	-12.832
▁1959	-12.8329
phan	-12.8334
Baghdadi	-12.8334
ome	-12.8335
5%)	-12.8348
▁lượn	-12.8351
▁Earth	-12.8352
▁VSIP	-12.8352
▁Rennes	-12.8352
▁House	-12.8352
▁râm	-12.8352
▁hiên	-12.8353
▁cừu	-12.8353
▁Nhậm	-12.8355
rum	-12.8355
▁Mỗ	-12.8355
phiên	-12.8359
qui	-12.8361
Yêu	-12.8362
▁4,7	-12.8366
▁3-3	-12.8368
pt	-12.8368
▁Dana	-12.8373
Qu	-12.8373
▁gara	-12.8379
gã	-12.8382
sion	-12.8382
▁Dừa	-12.8396
▁Ligt	-12.8396
▁mấu	-12.8396
▁combo	-12.8396
▁Kabul	-12.8396
▁BLHS	-12.8396
▁Thuyên	-12.8396
▁Đèn	-12.8396
▁Ash	-12.8396
▁cover	-12.8397
▁Model	-12.8401
▁ĐLVN	-12.8403
Nhận	-12.8403
Leste	-12.8403
▁12-15	-12.8403
diễn	-12.8403
Cao	-12.8408
▁Royal	-12.841
mùa	-12.8411
▁161	-12.8418
▁0,4%	-12.842
▁PPP	-12.8422
huỗi	-12.8428
.050	-12.8431
▁IT	-12.8438
▁Estonia	-12.844
▁module	-12.844
▁Fadil	-12.844
▁sùi	-12.844
▁lừng	-12.844
▁nhĩ	-12.844
▁nách	-12.844
▁Realtime	-12.844
Mo	-12.8441
▁Đọc	-12.8442
shin	-12.8444
dr	-12.8453
▁Chạy	-12.8457
ust	-12.8458
Còn	-12.8459
lau	-12.8463
ire	-12.8467
0,6	-12.8467
▁VC	-12.8469
▁Tech	-12.8476
▁SP	-12.8478
▁PH	-12.8483
▁Schalke	-12.8484
▁trầu	-12.8484
▁Marcelo	-12.8484
▁Island	-12.8484
Hưng	-12.8493
▁moóc	-12.8499
home	-12.85
▁245	-12.8503
▁5,6	-12.8506
aga	-12.8508
▁5-1	-12.8508
DV	-12.8511
gov	-12.8511
1,4	-12.8516
ens	-12.8521
▁Australian	-12.8522
app	-12.8522
▁Dũ	-12.8523
ever	-12.8523
▁Alaska	-12.8528
▁Shoigu	-12.8528
▁Kbang	-12.8528
▁nhoáng	-12.8528
▁Riềng	-12.8529
bia	-12.853
well	-12.8533
▁12-17	-12.8534
▁Modi	-12.8535
PNJ	-12.8536
▁thuở	-12.8537
▁2021”	-12.8538
▁Pala	-12.854
.12.2019	-12.8542
nước	-12.8542
▁8.2019	-12.8543
7,5%	-12.8551
ép	-12.856
▁211	-12.8565
field	-12.8567
▁RO	-12.8571
▁lùn	-12.8572
▁Nhiễm	-12.8573
▁dôi	-12.8573
▁polyphenol	-12.8573
▁Nhược	-12.8573
▁Busan	-12.8573
▁Thập	-12.8574
▁Diaz	-12.8574
6,2	-12.8579
trực	-12.8581
ĐV	-12.8587
play	-12.8591
SM	-12.8594
▁97%	-12.8603
sốt	-12.8604
yang	-12.8604
chu	-12.8608
▁Leon	-12.8609
Phố	-12.861
▁Dàn	-12.8615
DT	-12.8616
▁Lithuania	-12.8618
▁marathon	-12.8618
weight	-12.8618
hơi	-12.862
sáng	-12.8626
▁Visa	-12.8627
▁Né	-12.8628
▁256	-12.8629
chợ	-12.863
Canh	-12.8632
pro	-12.8632
▁160.000	-12.864
▁EUR	-12.864
▁172	-12.8642
Tuổi	-12.8644
lis	-12.865
Na	-12.865
▁Carl	-12.8654
▁Research	-12.8663
▁Yeah	-12.8663
▁truất	-12.8663
▁21%	-12.8664
uôi	-12.8665
▁Nại	-12.8666
ert	-12.8667
Me	-12.8669
star	-12.867
cà	-12.8678
bs	-12.8679
▁Jay	-12.868
▁5,4	-12.8681
▁nano	-12.8681
▁8-10	-12.8684
▁140.000	-12.8684
▁Pin	-12.8685
hách	-12.8688
BĐ	-12.8698
▁1961	-12.8701
▁Mr	-12.8704
▁Mario	-12.8707
▁McCain	-12.8708
▁Miguel	-12.8708
▁Italy	-12.8708
▁Ahmed	-12.8708
ichi	-12.8708
▁Pique	-12.8709
▁náu	-12.871
cá	-12.8711
▁92%	-12.8711
▁CATP	-12.8712
THCS	-12.8717
7,4	-12.8717
▁Bồi	-12.8719
time	-12.8724
▁Set	-12.8729
ila	-12.8735
1,1	-12.8744
▁QH	-12.8744
▁Mor	-12.8752
UNCLOS	-12.8754
▁Asanzo	-12.8754
▁Búk	-12.8754
▁Giày	-12.8754
▁Jungkook	-12.8754
▁Wisconsin	-12.8754
ula	-12.8755
▁tuông	-12.8756
▁Tảo	-12.876
OP	-12.8761
▁INF	-12.8765
ED	-12.8767
▁2018”	-12.8769
KD	-12.877
▁PCT	-12.877
▁130.000	-12.8771
▁6-8	-12.8776
9,8	-12.8781
rr	-12.8781
▁VCCI	-12.8783
▁212	-12.8784
▁Vạc	-12.8788
hồ	-12.8791
ike	-12.8791
the	-12.8793
gon	-12.8793
4,7	-12.8794
.11,	-12.8796
ảng	-12.8798
▁vần	-12.8799
XSKT	-12.8799
▁phèn	-12.8799
▁Marvel	-12.8799
▁nỉ	-12.88
▁Giàn	-12.88
▁187	-12.8801
ươn	-12.8807
▁Sur	-12.8807
2,9	-12.8811
Khá	-12.8813
mục	-12.8818
▁Dễ	-12.8818
▁khinh	-12.8827
▁191	-12.883
phong	-12.8831
▁Ngàn	-12.8834
áy	-12.8836
▁Guterres	-12.8845
▁Tặng	-12.8845
▁Virginia	-12.8846
▁Hãn	-12.8847
▁Glong	-12.8847
▁Williams	-12.8847
▁PVI	-12.885
LO	-12.885
▁Watch	-12.8852
HOSE	-12.8854
quốc	-12.8854
rai	-12.8855
iếu	-12.8855
fer	-12.8858
Tham	-12.886
gà	-12.887
▁TW	-12.8871
▁ngà	-12.8873
▁2016-2021.	-12.8874
hoon	-12.8875
elli	-12.8883
Le	-12.8887
▁Ger	-12.8887
elta	-12.889
▁Insider	-12.8891
▁Marcus	-12.8892
HĐ	-12.8892
zer	-12.8892
▁Kích	-12.8893
▁208	-12.8894
uda	-12.8895
ario	-12.8895
hua	-12.8897
▁Rex	-12.8898
ial	-12.8898
▁Kra	-12.8898
▁Joseph	-12.8899
Thiên	-12.8901
▁Tái	-12.8901
.202	-12.8909
BCT	-12.8909
nói	-12.8911
▁Tao	-12.8918
Xe	-12.8921
.2022)	-12.8922
nal	-12.8924
kinh	-12.8931
cam	-12.8935
▁Alzheimer	-12.8937
▁vặn	-12.8937
▁ETF	-12.8937
▁Lay	-12.8938
▁Camry	-12.8939
▁23.140	-12.8941
▁Xuyến	-12.8941
▁Giuộc	-12.8943
▁Art	-12.8945
▁310	-12.8945
▁TXT	-12.8946
Quân	-12.8947
▁1994)	-12.8949
2,2	-12.8949
▁1991)	-12.895
elo	-12.895
Kền	-12.8951
▁Robot	-12.8952
0,3	-12.8954
▁CK	-12.8955
IF	-12.8964
NE	-12.897
5,4	-12.8983
▁(28.7.1929	-12.8984
▁Fabio	-12.8984
▁Healthline	-12.8984
▁gượng	-12.8984
▁phơn	-12.8984
▁sỉ	-12.8984
▁riết	-12.8985
▁Beach	-12.8985
▁Dường	-12.8988
▁Trừ	-12.899
Blackpink	-12.8994
Tấm	-12.8994
9.7	-12.8994
Nhân	-12.8996
Nói	-12.8999
chết	-12.9
dor	-12.9001
ult	-12.9004
▁Gas	-12.9009
▁ILO	-12.901
▁Mir	-12.9012
▁It	-12.9013
amine	-12.9014
2.500	-12.9017
HVN	-12.9021
▁183	-12.9029
▁Sacombank	-12.9031
▁Torres	-12.9031
▁Tươi	-12.9031
▁hẫng	-12.9031
▁laser	-12.9031
▁Cardiff	-12.9031
VDSC	-12.9031
▁Lotte	-12.9031
ưởng	-12.9031
▁2.2022	-12.904
▁STB	-12.904
nằm	-12.9041
▁950	-12.9052
▁bợ	-12.9054
ves	-12.9058
▁Grande	-12.9068
▁Đổ	-12.907
▁Bio	-12.9071
▁(1).	-12.9073
▁dẻ	-12.9078
▁Chicago	-12.9078
▁Lopez	-12.9078
▁chấu	-12.9078
ikistan	-12.9078
▁Phillip	-12.9078
▁Ahn	-12.9084
▁Hen	-12.9084
ors	-12.9085
aro	-12.9087
TI	-12.9088
▁1,5%	-12.9089
ese	-12.9092
0,7	-12.9094
▁3.200	-12.9103
▁4.2022	-12.9103
▁55.000	-12.9109
NO	-12.9109
▁Wave	-12.9115
FAT	-12.9116
▁IR	-12.912
▁Accent	-12.9125
▁Fiorentina	-12.9125
▁Luxury	-12.9125
▁Jorge	-12.9125
▁oán	-12.9125
▁Willian	-12.9125
▁Ivanka	-12.9125
▁vuốt	-12.9125
▁Loạt	-12.9125
▁miên	-12.9125
▁Đẩu	-12.9126
▁VPB	-12.9127
▁11-12	-12.9131
▁Santos	-12.9133
▁BAC	-12.9134
Pa	-12.9138
▁Series	-12.9139
Tiếp	-12.9139
▁182	-12.914
8.4	-12.9144
VX	-12.9151
▁kV	-12.9151
▁Ross	-12.9154
▁Đoa	-12.9154
6,3	-12.9154
UB	-12.9155
▁Rio	-12.9157
▁Hon	-12.9161
▁Bert	-12.9161
chia	-12.9163
bit	-12.9167
lot	-12.917
▁Nhan	-12.9171
▁OM	-12.9172
Đrắk	-12.9172
▁Grealish	-12.9172
▁Gunnar	-12.9172
▁Macedonia	-12.9172
▁Premium	-12.9172
▁Everest	-12.9172
▁23%	-12.9173
▁Arsen	-12.9173
VND	-12.9174
nik	-12.9176
yon	-12.9179
▁Boy	-12.918
▁xy	-12.9181
đứng	-12.9183
▁Boo	-12.9184
▁51%	-12.9188
day	-12.9189
Bên	-12.919
Uông	-12.9192
▁Bel	-12.9195
chol	-12.9196
gam	-12.9202
450	-12.9204
▁Kun	-12.9204
▁Jon	-12.9212
▁75.000	-12.9213
aco	-12.9215
▁Đu	-12.9219
▁1982)	-12.9219
▁Thấu	-12.922
▁voucher	-12.922
▁Luzon	-12.922
▁vừng	-12.922
▁Ngồi	-12.922
▁Trust	-12.922
▁Chẩn	-12.922
▁Quay	-12.9221
2003	-12.9223
▁OceanBank	-12.9224
▁17,5	-12.9228
▁2019/20	-12.9228
▁(55	-12.9231
đặt	-12.9231
▁sành	-12.9233
▁River	-12.9235
▁tanh	-12.9239
Lạng	-12.9241
▁ngụy	-12.9242
▁30.9.2021	-12.9242
4,3	-12.9243
▁ml	-12.9244
BNN	-12.9245
▁Fer	-12.9248
6%)	-12.9251
▁Bern	-12.9251
▁rồ	-12.9257
▁2015-2020.	-12.9258
tes	-12.9266
7,2	-12.9267
▁hủ	-12.9267
▁Edward	-12.9268
▁chốc	-12.9268
hặng	-12.9269
iếm	-12.9273
▁Nice	-12.9273
DAS	-12.9273
▁Nụ	-12.9274
▁Plan	-12.9274
â	-12.9277
MG	-12.9278
Vấn	-12.9279
HLV	-12.9279
ima	-12.9284
▁(56	-12.9286
▁data	-12.9286
▁1954	-12.9287
▁Auto	-12.9287
ller	-12.9288
hyun	-12.9289
▁Dâu	-12.929
2001	-12.9292
▁phông	-12.9293
phone	-12.9295
▁3,9	-12.9296
Nó	-12.9296
2000	-12.9305
▁3-6	-12.931
▁ABS	-12.931
▁hòm	-12.931
▁Nhổn	-12.9316
▁VEAM	-12.9316
▁laptop	-12.9316
▁Sanders	-12.9316
▁Hotline	-12.9316
▁baht	-12.9316
▁Mão	-12.9327
đàn	-12.9328
hết	-12.933
quan	-12.9331
▁Turin	-12.9332
▁Cân	-12.9336
▁1992)	-12.9349
▁7.500	-12.935
▁Gri	-12.9353
▁lõm	-12.9364
▁Adrian	-12.9364
▁phượng	-12.9364
▁giăng	-12.9364
▁MSB	-12.9365
▁Michel	-12.9367
▁toát	-12.9372
Cậu	-12.9376
cháy	-12.9376
thương	-12.9376
▁1988)	-12.9379
3,2	-12.9379
ớn	-12.938
▁quyện	-12.9383
ượt	-12.9385
▁(54	-12.9391
▁ỉ	-12.9392
zy	-12.9402
▁han	-12.9406
KGVX	-12.9413
▁Khaisilk	-12.9413
▁Vinaconex	-12.9413
▁Watabe	-12.9413
▁Romelu	-12.9413
▁đẽ	-12.9414
▁reo	-12.9415
35-37	-12.9415
▁Alpha	-12.9415
▁Note	-12.9416
▁ngu	-12.9422
Du	-12.9422
BVSC	-12.9425
rô	-12.9426
Bo	-12.943
cl	-12.9431
▁cent	-12.9436
COC	-12.9445
PP	-12.9446
run	-12.9454
▁Thì	-12.9456
▁ngơ	-12.9459
▁Marie	-12.9461
▁Ghouta	-12.9461
▁NutiFood	-12.9461
▁ngáo	-12.9461
▁trending	-12.9462
▁BioNTech	-12.9463
▁mích	-12.9463
▁VNEN	-12.9463
phá	-12.9466
▁BSR	-12.9466
▁Timo	-12.9471
▁Đạm	-12.9472
%);	-12.9472
bel	-12.9473
Bão	-12.9474
▁UN	-12.9475
ơng	-12.9481
▁quệ	-12.9481
▁Rain	-12.9482
Tập	-12.9486
Nước	-12.9491
▁10-12	-12.9494
nia	-12.9496
▁1989)	-12.9497
AL	-12.9497
gal	-12.95
▁Giấ	-12.9504
uyên	-12.9505
▁TTHC	-12.9505
▁173	-12.9509
dam	-12.9509
1,9	-12.951
▁CGTN	-12.951
▁GrabBike	-12.951
▁Pathum	-12.951
▁Erling	-12.951
xo	-12.9511
▁CBS	-12.9511
8,3	-12.9512
▁171	-12.9514
▁2019”	-12.9514
▁Turkmenistan	-12.9514
▁337	-12.9516
▁Hwang	-12.9516
3,7	-12.9519
▁2.700	-12.952
▁6,2	-12.9521
▁noi	-12.9521
kẻ	-12.9525
bốc	-12.953
50%	-12.9531
▁Dominic	-12.9532
light	-12.9535
bas	-12.9538
Cách	-12.954
kyun	-12.9545
▁Tar	-12.9549
▁PNJ	-12.9551
▁Cap	-12.9556
▁Harvard	-12.956
▁Jackpot	-12.956
▁Morrison	-12.956
▁micro	-12.956
▁Fury	-12.956
▁Phiến	-12.9563
HAN	-12.9564
▁Shah	-12.9564
▁Nike	-12.9569
Nhuệ	-12.9572
BIDV	-12.9572
▁Kem	-12.9587
yeong	-12.9588
▁“75	-12.9605
▁Morocco	-12.9609
▁Trầm	-12.9609
▁hích	-12.9609
▁quỷ	-12.961
▁Sudan	-12.961
▁CNC	-12.961
▁Vigo	-12.9611
▁Yun	-12.9613
▁thỏm	-12.9613
▁Rập	-12.9614
iga	-12.9616
▁der	-12.962
▁(57	-12.962
▁2.800	-12.9621
Đầu	-12.9622
cứu	-12.9622
nguồn	-12.9622
RS	-12.9624
▁gu	-12.9628
▁Cáp	-12.9629
▁Yi	-12.9632
▁nhẹn	-12.9642
▁Mur	-12.9655
▁Dangda	-12.9659
▁Espanyol	-12.9659
▁Nhuế	-12.9659
4,9	-12.9661
sca	-12.967
BHTN	-12.9672
▁2.600	-12.9677
llar	-12.9681
98%	-12.9685
GĐ	-12.9689
Quang	-12.9693
▁day	-12.9698
▁thán	-12.9698
▁206	-12.9701
▁chò	-12.9706
ili	-12.9707
▁Austin	-12.9709
▁nhấc	-12.9709
▁Vegas	-12.9709
▁sệt	-12.9709
▁Corp	-12.971
hép	-12.9711
5,3	-12.9712
▁Pele	-12.9713
Luật	-12.9722
FIFA	-12.9722
▁Ayun	-12.9723
giấy	-12.9725
-39	-12.9725
Và	-12.9726
▁Hall	-12.9727
▁vũng	-12.9729
▁Đời	-12.9731
rab	-12.9737
▁How	-12.9738
/15	-12.9739
▁sộ	-12.9742
▁7,2	-12.975
▁IP	-12.9751
▁LĐTB	-12.9756
▁Abraham	-12.9759
▁Fauci	-12.9759
▁Gerrard	-12.9759
▁Ngầm	-12.9759
▁Raqqa	-12.9759
▁Thaksin	-12.9759
▁Jolie	-12.9759
▁Mendy	-12.9759
▁nhầy	-12.976
▁Shopee	-12.976
▁liêm	-12.976
▁Morgan	-12.976
▁Brand	-12.9762
▁7,8	-12.9763
6,7%	-12.9763
lex	-12.9764
zar	-12.9764
▁5,7	-12.9765
▁3/4	-12.9766
var	-12.9767
▁5,3	-12.9768
4,2	-12.9769
▁nhác	-12.9772
tài	-12.9773
▁2.100	-12.9777
▁Baghdad	-12.9779
▁Denis	-12.9779
▁31%	-12.9782
▁1985	-12.9785
OD	-12.9785
char	-12.979
▁4.2017	-12.9791
▁6,6	-12.9792
▁Er	-12.9805
▁xuyến	-12.9809
group	-12.981
▁Formosa	-12.981
▁uranium	-12.981
▁Marketing	-12.981
▁Dow	-12.981
▁Mus	-12.9813
▁Quí	-12.9814
▁Thiệp	-12.9814
▁enzyme	-12.9815
▁20-25	-12.9818
lee	-12.9822
Cướp	-12.9823
UBKT	-12.9824
▁Mars	-12.9825
Giáo	-12.9825
Mẫu	-12.9827
▁5000	-12.9829
▁Bull	-12.9839
Km	-12.9846
▁viền	-12.9849
▁Roman	-12.985
del	-12.9851
▁1995)	-12.9854
▁nắn	-12.986
▁Abramovich	-12.986
▁Senegal	-12.986
▁Graham	-12.9861
▁sục	-12.9861
▁QLDA	-12.9861
▁XVIII	-12.9863
▁1945	-12.9867
doanh	-12.9869
▁rông	-12.9872
II	-12.9874
hậu	-12.9874
kWh	-12.9875
FTA	-12.9875
Thị	-12.9875
non	-12.9885
1,8%	-12.9885
▁Bri	-12.9887
tâm	-12.9889
SBD	-12.989
▁live	-12.989
▁khăng	-12.9893
5.7	-12.9893
iếc	-12.9895
92:	-12.9902
▁1987)	-12.9911
▁Ethiopia	-12.9911
▁Kroos	-12.9911
▁Theerathon	-12.9911
▁Thôi	-12.9911
▁BOG	-12.9911
▁Report	-12.9912
▁kiwi	-12.9912
▁Karim	-12.9912
Capita	-12.9913
▁Sil	-12.9914
▁DNA	-12.9914
▁HCB	-12.9917
▁Thoả	-12.9924
On	-12.9925
321	-12.9927
▁KP	-12.9931
Táo	-12.9931
▁bét	-12.9935
▁301	-12.9936
nội	-12.994
elle	-12.9945
EE	-12.9945
sản	-12.9948
ùi	-12.9949
▁MS	-12.9953
emi	-12.9954
▁Hol	-12.9956
.2004	-12.9957
ĐB	-12.996
▁Brussels	-12.9963
▁Management	-12.9963
▁(40-50	-12.9963
▁Minsk	-12.9963
▁Jút	-12.9963
▁nhối	-12.9964
▁Matic	-12.9966
▁thêu	-12.9967
▁Abdullah	-12.9969
▁Aviv	-12.9969
▁USB	-12.997
Australia	-12.9977
Ngọc	-12.9978
đều	-12.998
chơi	-12.9981
máy	-12.9984
1,0	-12.9985
5%/	-12.9985
▁2.6.2021	-12.9987
▁Cook	-12.9987
▁Med	-12.999
▁ONE	-12.9994
2011,	-12.9998
▁204	-13.0001
▁Lau	-13.0005
nny	-13.0006
▁sò	-13.0007
▁0,9	-13.0008
▁Vừ	-13.001
KV	-13.0012
▁HP	-13.0012
▁Low	-13.0013
▁Dài	-13.0014
▁Ferguson	-13.0014
▁Lewis	-13.0014
▁Travel	-13.0014
zan	-13.0015
EL	-13.0015
▁Xổ	-13.0017
▁mải	-13.0017
▁96%	-13.0018
▁Gary	-13.0019
▁Nắng	-13.002
▁Mến	-13.002
ector	-13.0022
8,1	-13.0022
ẩu	-13.0025
rút	-13.0026
▁Year	-13.0028
Nghĩa	-13.0029
Quyết	-13.0029
dra	-13.003
uýt	-13.0034
▁6,4	-13.0037
YT	-13.0037
Cái	-13.0038
rak	-13.004
.5.2022.	-13.0047
▁30.000.000	-13.0047
tia	-13.0049
3,3%	-13.0052
▁218	-13.0056
▁Tôm	-13.0063
▁480	-13.0064
▁Levante	-13.0066
▁Niệm	-13.0066
▁Pelosi	-13.0066
▁THVL	-13.0066
▁Vinfast	-13.0066
▁Petrovic	-13.0066
▁Manuel	-13.0066
▁Thaco	-13.0067
▁Jimin	-13.0069
▁13-16	-13.0071
▁héo	-13.0073
eu	-13.0074
Lần	-13.0081
Malaysia	-13.0081
ném	-13.0087
▁200%	-13.0095
▁gạ	-13.0101
▁440	-13.0102
tti	-13.0102
▁TCB	-13.0103
▁Sốt	-13.0104
isa	-13.0104
▁207	-13.0105
▁20-30	-13.0108
▁5,0	-13.0112
▁201	-13.0112
rật	-13.0116
▁DC	-13.0117
▁Allegri	-13.0118
▁Brown	-13.0118
▁Channel	-13.0118
▁Cream	-13.0118
▁Recep	-13.0118
▁UPCOM	-13.0118
▁Cambridge	-13.0118
▁Moise	-13.0118
▁2017-2022	-13.0119
▁Chiang	-13.0119
▁19%	-13.012
▁29.2	-13.012
▁23.250	-13.0122
ive	-13.0126
sley	-13.0127
▁Sean	-13.0128
▁Bella	-13.0129
▁Sarah	-13.0131
▁EVNHCMC	-13.0131
▁WEF	-13.0133
thiếu	-13.0134
55:	-13.0135
▁7-10	-13.0138
sil	-13.014
EO	-13.0146
▁PR	-13.015
▁229	-13.015
▁Bob	-13.0159
▁trồ	-13.0159
ỳ	-13.016
cụ	-13.0165
low	-13.0165
ega	-13.0165
▁Nghĩ	-13.0168
die	-13.0169
▁Hernandez	-13.0171
▁Lisbon	-13.0171
▁Louisiana	-13.0171
▁Seltos	-13.0171
▁nhuần	-13.0171
▁Union	-13.0171
▁kiếp	-13.0171
CL	-13.0173
▁Hung	-13.0173
▁Dừng	-13.0176
▁Yoga	-13.0179
▁2.400	-13.0179
▁Dal	-13.018
VĐQG	-13.0181
hỏa	-13.0182
live	-13.0184
▁bít	-13.0184
WA	-13.0185
hừng	-13.0186
pas	-13.0186
Hiệp	-13.0187
yêu	-13.0193
▁164	-13.0193
oul	-13.0202
▁ỳ	-13.0206
▁Nhuệ	-13.021
▁bịch	-13.0213
ough	-13.0213
DOC	-13.0221
tất	-13.0222
▁Colorado	-13.0223
▁Nikkei	-13.0223
▁hấn	-13.0223
▁wifi	-13.0223
▁Ngâm	-13.0224
▁Baby	-13.023
▁dìu	-13.0231
Arnold	-13.0239
Đúng	-13.0239
Châu	-13.0239
100%	-13.0241
uột	-13.0243
▁Tè	-13.0251
▁213	-13.0268
▁Invest	-13.0276
▁Nevada	-13.0276
▁Standard	-13.0276
▁huỳnh	-13.0276
▁Qui	-13.0277
▁nhúng	-13.0277
▁Boys	-13.0279
▁Hamas	-13.0279
▁279	-13.028
độ	-13.0282
▁OTP	-13.0287
Bị	-13.029
chuyến	-13.0294
hol	-13.0294
▁BHL	-13.0298
▁181	-13.0302
MBS	-13.0306
▁231	-13.0309
▁184	-13.0311
▁SV	-13.0316
▁Cưng	-13.0316
▁Ren	-13.0316
▁BG	-13.0318
mann	-13.0324
▁Rob	-13.0325
▁DV	-13.0327
▁phồn	-13.0328
▁nẻ	-13.0329
▁Lacazette	-13.0329
▁vựa	-13.0329
▁Covax	-13.0329
▁WTI	-13.033
▁dăm	-13.0331
▁Jackson	-13.0331
▁Ama	-13.0332
▁cùi	-13.0334
Ô	-13.0337
▁6,3	-13.0338
▁hãnh	-13.0338
▁chài	-13.0338
▁1800	-13.0343
Đơn	-13.0346
Nghị	-13.0346
▁Mí	-13.0346
▁1985)	-13.0346
▁Trạng	-13.0348
▁Hua	-13.0348
bó	-13.0349
▁IMF	-13.0351
▁xở	-13.0352
25%	-13.0358
▁Lù	-13.0359
amba	-13.0359
▁FE	-13.036
sson	-13.0361
▁23.000	-13.0362
chenko	-13.0363
▁1.1.2019	-13.0363
hee	-13.037
xy	-13.037
▁“4	-13.0371
▁gán	-13.0374
sốc	-13.0377
▁Foden	-13.0383
▁Nhẫn	-13.0383
▁Quới	-13.0383
▁quẩn	-13.0383
▁Ron	-13.0384
khai	-13.0385
▁Masters	-13.0385
▁Đáy	-13.0388
mas	-13.0389
▁Happy	-13.0392
▁tòi	-13.0393
▁243	-13.0395
vua	-13.04
bài	-13.0405
▁4,1	-13.0405
rad	-13.0409
Bài	-13.041
▁mào	-13.0411
▁Ap	-13.0413
▁rê	-13.042
▁(5)	-13.0423
▁Thung	-13.0426
▁chừ	-13.0428
▁hằn	-13.0435
▁miến	-13.0436
▁Mobifone	-13.0437
▁Qualcomm	-13.0437
▁cõi	-13.0437
eather	-13.0437
▁Camera	-13.0437
▁mút	-13.0438
▁Nghé	-13.0439
▁Biệt	-13.0441
▁Marwi	-13.0444
▁Yama	-13.0444
▁thiền	-13.0451
▁Xát	-13.0452
break	-13.0454
▁KĐT	-13.046
▁Chơn	-13.046
▁tấy	-13.0463
▁NK	-13.0468
thanh	-13.0469
oni	-13.0471
▁chợt	-13.0473
▁209	-13.048
ono	-13.0483
▁Tồn	-13.0484
-100	-13.0485
ette	-13.0486
▁1983)	-13.0486
▁Ambani	-13.0491
▁Hezbollah	-13.0491
▁Tsitsipas	-13.0491
Qaeda	-13.0491
▁trướng	-13.0491
▁Japan	-13.0491
▁365	-13.0491
▁Ryu	-13.0492
▁nhấp	-13.0492
▁Kéo	-13.0494
▁chày	-13.0494
▁Ran	-13.0496
phụ	-13.0505
vừa	-13.0508
Thích	-13.0508
▁0,25	-13.0509
▁Rico	-13.0511
▁xo	-13.0514
▁Túi	-13.0518
sar	-13.052
chui	-13.0526
shan	-13.0529
ture	-13.053
▁Lừa	-13.0538
001	-13.054
▁Grammy	-13.0545
▁Honduras	-13.0545
▁Mauricio	-13.0545
▁Yoshihide	-13.0545
▁xui	-13.0546
▁nem	-13.0547
▁Nhiêu	-13.0548
▁Vỏ	-13.0553
▁Marinos	-13.0553
par	-13.0556
Bằng	-13.0563
tỉ	-13.0567
▁Mùng	-13.0568
▁0,6%	-13.0574
▁gao	-13.0575
vai	-13.0576
▁5,8	-13.0577
cú	-13.058
hou	-13.0589
▁Kor	-13.059
uck	-13.0591
bra	-13.0592
▁Cuốn	-13.0597
AO	-13.0597
▁Blinken	-13.06
▁Hiddink	-13.06
▁Raphael	-13.06
▁rậm	-13.06
▁Yan	-13.06
▁251	-13.0603
▁Marcos	-13.0604
▁Thua	-13.0604
Made	-13.0605
▁teo	-13.0606
rôm	-13.0607
▁Siro	-13.0609
Xanh	-13.0619
Ha	-13.0619
2,5%	-13.0623
▁24%	-13.0626
▁2022”	-13.0628
▁DT	-13.0631
▁càn	-13.0632
ming	-13.0634
▁hốc	-13.0636
Bất	-13.0639
ISS	-13.0644
ux	-13.0648
Hàng	-13.0649
320	-13.065
▁19.000	-13.0654
▁2022-2023	-13.0655
▁Crưm	-13.0655
▁Deportivo	-13.0655
▁Houston	-13.0655
▁Igor	-13.0655
▁nấc	-13.0655
▁ngửi	-13.0655
▁Baltic	-13.0655
▁33-36	-13.0656
▁thặng	-13.0657
▁Eli	-13.0657
▁Five	-13.0657
▁Muay	-13.0659
▁rúng	-13.0661
▁Chơi	-13.0662
▁Cen	-13.0663
Lật	-13.0673
chuyển	-13.0673
Tìm	-13.0673
▁50.000.000	-13.0676
▁DO	-13.0678
▁(58	-13.0679
▁rô	-13.0683
▁6.500	-13.0687
▁bả	-13.0691
▁túm	-13.0695
▁Đo	-13.0701
▁Bro	-13.0702
stein	-13.0703
▁Flo	-13.071
▁Fernando	-13.071
▁Iniesta	-13.071
▁Jonathan	-13.071
▁Tấu	-13.071
▁Vinpearl	-13.071
▁HSSV	-13.071
▁Jadon	-13.071
TĐ	-13.071
ower	-13.0711
75.000	-13.0713
▁Rác	-13.0715
-31	-13.0715
▁AK	-13.0717
▁Gian	-13.0722
▁Hát	-13.0723
-52	-13.0725
▁Mina	-13.0725
▁rườ	-13.0726
Tính	-13.0728
chặt	-13.0728
phản	-13.0728
Ký	-13.073
1000	-13.0731
Dân	-13.0732
▁1984)	-13.0736
8.500	-13.0739
Franc	-13.074
▁tho	-13.0741
▁Xiao	-13.0741
PVN	-13.0744
▁375	-13.0747
▁Cướp	-13.0751
▁lụ	-13.0753
▁5.2017	-13.0762
▁AirVisual	-13.0765
▁bướm	-13.0765
▁chần	-13.0765
▁marketing	-13.0765
▁đì	-13.0766
▁Carina	-13.0766
▁quăng	-13.0766
CKII	-13.0769
LI	-13.0771
▁Lion	-13.0777
1,4%	-13.0777
▁224	-13.078
▁sọc	-13.0782
kho	-13.0785
việc	-13.0785
nhảy	-13.0785
▁Web	-13.0786
Lễ	-13.0787
Cán	-13.0788
▁Chiên	-13.079
Đất	-13.0791
▁Tựu	-13.0805
ique	-13.081
▁1986)	-13.0812
▁BB	-13.082
▁Pol	-13.0821
▁Atlanta	-13.0821
▁Wolfsburg	-13.0821
▁Wolverhampton	-13.0821
▁ĐSVN	-13.0821
▁Retail	-13.0821
▁Riverside	-13.0821
▁Voice	-13.0821
▁Money	-13.0823
▁Goal	-13.0823
▁Nhanh	-13.0828
▁BNN	-13.0832
cấm	-13.0841
ngôi	-13.0841
▁Les	-13.0841
phải	-13.0841
Câu	-13.0843
▁62.000	-13.0848
▁170.000	-13.0854
cio	-13.0855
tập	-13.0855
▁Data	-13.0858
dis	-13.0861
▁TNG	-13.0863
oro	-13.0869
CG	-13.0873
▁quầng	-13.0877
▁Allianz	-13.0877
▁Nutifood	-13.0877
▁Alves	-13.0878
▁Tony	-13.0878
▁920	-13.0881
▁MBB	-13.0885
▁Lạnh	-13.0885
▁Phà	-13.0891
hùng	-13.0892
▁4,9	-13.0896
tùy	-13.0897
VCCI	-13.0897
Nguyên	-13.0897
▁hú	-13.091
▁356	-13.0915
heng	-13.0915
stic	-13.0916
▁Tru	-13.0917
xem	-13.0918
gạo	-13.0922
qi	-13.0925
▁bo	-13.0933
▁Brugge	-13.0934
▁Bunmathan	-13.0934
▁Challenge	-13.0934
▁Plông	-13.0934
▁Yulia	-13.0934
▁Great	-13.0934
▁Cannes	-13.0934
▁Haley	-13.0935
Royce	-13.0938
▁Vie	-13.094
▁Lỗi	-13.094
rol	-13.0941
▁Ray	-13.0941
▁23/2021/	-13.0947
▁SG	-13.0948
▁DAB	-13.0949
ness	-13.0952
cố	-13.0954
FF	-13.0954
Khoảng	-13.0955
▁Sho	-13.0963
-90	-13.0971
▁28%	-13.0973
3.260	-13.0974
▁1.5.2021	-13.0974
ane	-13.0977
▁USA	-13.0985
▁Som	-13.0988
▁Gun	-13.0989
▁Artemis	-13.0991
▁Chauvin	-13.0991
▁Huddersfield	-13.0991
▁Mumbai	-13.0991
▁OPEC	-13.0991
▁Sampdoria	-13.0991
▁Verstappen	-13.0991
▁sầm	-13.0991
▁Evan	-13.0991
▁Grace	-13.0991
▁ngùng	-13.0991
▁Melon	-13.0994
hộp	-13.0994
▁NCB	-13.0996
▁7.2017	-13.0999
▁Mộng	-13.0999
▁4-3	-13.1001
▁750.000	-13.1002
▁duệ	-13.1003
Hồng	-13.1004
▁Petersburg	-13.1005
sung	-13.1008
▁560	-13.1009
▁Nối	-13.1011
Đánh	-13.1012
▁High	-13.1016
▁Of	-13.1019
Thay	-13.1021
▁Bal	-13.1023
Vina	-13.1025
▁gàu	-13.1035
▁Nàng	-13.1038
Go	-13.1043
▁Gián	-13.1046
▁Axit	-13.1048
▁Finals	-13.1048
▁Finance	-13.1048
▁Flick	-13.1048
▁Halloween	-13.1048
▁Havertz	-13.1048
▁Pablo	-13.1048
▁Widodo	-13.1048
▁tấc	-13.1048
▁NFT	-13.1048
▁Rolls	-13.1048
▁Warren	-13.1048
▁TMĐT	-13.1048
stra	-13.1049
▁Master	-13.1049
▁AIPA	-13.1049
▁Evans	-13.105
▁Philip	-13.1052
.2006	-13.1053
▁16,5	-13.1062
▁Phê	-13.1066
▁1957	-13.1068
báo	-13.107
▁War	-13.1071
bạn	-13.1071
▁AIDS	-13.1075
▁300%	-13.1081
▁Ale	-13.1086
íp	-13.1088
▁27.4.2021	-13.1089
5-	-13.1101
▁Jennifer	-13.1105
▁NHCSXH	-13.1105
▁ghê	-13.1105
▁gấc	-13.1105
▁Buffon	-13.1105
▁Joshua	-13.1105
▁cõng	-13.1106
▁Chờ	-13.1106
▁3-4-3	-13.1106
▁Luang	-13.1106
▁Roland	-13.1106
▁hời	-13.1107
Ar	-13.1107
▁Jamal	-13.1108
▁mớ	-13.1108
life	-13.1108
▁mồm	-13.1109
▁Gong	-13.111
woo	-13.1113
▁1-5	-13.1113
▁Yếu	-13.1113
5,3%	-13.112
▁WTO	-13.1124
FED	-13.1127
xanh	-13.113
▁110.000	-13.1133
▁Saka	-13.1133
dic	-13.1133
rich	-13.1147
lav	-13.1147
▁Rus	-13.1148
▁911	-13.1148
shima	-13.1149
Squid	-13.1163
▁khuỷu	-13.1163
▁miligam	-13.1163
thy	-13.1163
▁TTVN	-13.1165
▁tót	-13.1167
▁Dục	-13.1169
WD	-13.1172
▁Phe	-13.1173
▁tét	-13.1173
rian	-13.1173
zen	-13.1175
▁Sanna	-13.1175
▁Trò	-13.1177
▁7-6	-13.1181
▁pro	-13.1186
▁kềnh	-13.1186
Ngôi	-13.1187
ame	-13.1192
WF	-13.1192
▁VNA	-13.1203
▁lồi	-13.121
Thi	-13.1211
▁enzym	-13.1216
food	-13.122
▁kị	-13.122
▁Porsche	-13.1221
▁CHQS	-13.1221
▁hụi	-13.1221
▁TTYT	-13.1221
▁giẻ	-13.1221
▁2017”	-13.1222
▁Road	-13.1223
dre	-13.1223
▁Duyệt	-13.1224
▁Java	-13.1228
▁Kenya	-13.1232
▁Mâm	-13.1233
Li	-13.1233
▁Rơ	-13.1235
▁650.000	-13.1237
▁bỉm	-13.124
▁Nur	-13.124
2002	-13.1241
▁26%	-13.1241
▁Mali	-13.1241
trắng	-13.1243
▁460	-13.1247
Pro	-13.1247
Đêm	-13.1247
▁27%	-13.125
▁13,5	-13.1253
.10.2019	-13.1259
-200	-13.1263
chốt	-13.1266
▁Pou	-13.1272
▁Alcaraz	-13.128
▁Exciter	-13.128
▁Hopkins	-13.128
▁Mnuchin	-13.128
▁Moriyasu	-13.128
▁Prông	-13.128
▁Vietravel	-13.128
▁ghì	-13.128
▁pressing	-13.128
▁sặc	-13.128
▁vênh	-13.128
▁RIA	-13.128
▁chát	-13.128
▁sủa	-13.1281
▁(2016	-13.1283
▁Duệ	-13.1283
▁nu	-13.1286
med	-13.1288
▁196	-13.1289
▁10,5	-13.1292
PCTT	-13.1292
▁mui	-13.1296
PF	-13.1301
Sài	-13.1302
cầm	-13.1302
Chống	-13.1302
▁Mak	-13.1304
viết	-13.1306
▁1997)	-13.1306
Fi	-13.1307
Giao	-13.1309
Al	-13.131
▁Chè	-13.1318
▁Arnold	-13.1321
evo	-13.1323
7,4%	-13.1327
▁36%	-13.1328
Cam	-13.1328
▁Chay	-13.1332
▁lả	-13.1338
▁BlackPink	-13.1339
▁Christopher	-13.1339
▁Kritenbrink	-13.1339
▁Lopetegui	-13.1339
▁Telegraph	-13.1339
▁Raiola	-13.1339
FOMC	-13.1339
▁Basel	-13.134
▁thỏi	-13.1341
▁Guo	-13.1343
▁phào	-13.1345
▁nhuệ	-13.1346
▁Fair	-13.1346
▁éo	-13.1348
tex	-13.1356
▁Like	-13.1356
▁YouTuber	-13.1359
▁pô	-13.136
Dịch	-13.1362
oan	-13.1362
▁Kum	-13.137
▁Toni	-13.1372
phiêu	-13.1376
▁1996)	-13.1379
▁hiu	-13.1381
▁vánh	-13.1382
▁Clark	-13.1382
▁Toan	-13.1385
▁Mộ	-13.1394
iyech	-13.1398
▁Bolivia	-13.1398
▁Cienco	-13.1398
▁Falcon	-13.1398
▁BRG	-13.1398
▁Tụ	-13.14
▁Light	-13.1401
▁Maha	-13.1402
▁Vâu	-13.1402
▁Night	-13.1403
▁Chóng	-13.1403
▁Edin	-13.1406
▁NTM	-13.1408
▁mó	-13.141
▁6,8	-13.1413
Cháu	-13.142
▁bồng	-13.1427
xúi	-13.1428
▁999	-13.1439
▁xê	-13.1441
▁bu	-13.1443
0,5%	-13.1445
cic	-13.1446
▁Trans	-13.1447
▁Nan	-13.1452
Love	-13.1456
/2012/	-13.1457
RCEP	-13.1457
mir	-13.1461
▁49%	-13.1468
▁Pet	-13.1468
▁Xê	-13.1477
KBSV	-13.148
Chưa	-13.148
Diễn	-13.148
Hậu	-13.148
nhận	-13.148
gs	-13.148
NSND	-13.148
trái	-13.1481
Viện	-13.1481
▁Phìn	-13.1484
5,9	-13.1484
▁315	-13.1487
▁262	-13.1487
▁1/5	-13.1492
.12,	-13.1493
▁302	-13.1494
▁Stra	-13.1495
▁1400	-13.1497
▁lác	-13.1499
▁love	-13.1501
▁Cua	-13.151
▁8,6	-13.1513
▁Bright	-13.1517
Qủy	-13.1517
▁Chấm	-13.1517
▁Ethereum	-13.1517
▁Mancini	-13.1517
▁Mirror	-13.1517
▁Torino	-13.1517
▁Troussier	-13.1517
▁hươu	-13.1517
▁lipid	-13.1517
▁tằm	-13.1517
▁zalo	-13.1517
▁khít	-13.1518
▁Ibra	-13.1518
▁Mill	-13.152
▁xối	-13.1521
▁Marina	-13.1523
3,9	-13.1526
4,2%	-13.1527
▁Brian	-13.1527
▁Bun	-13.1529
▁TKCN	-13.1533
▁xệ	-13.1534
▁trading	-13.1536
▁nguyền	-13.1539
▁my	-13.154
quân	-13.1541
FPT	-13.1542
than	-13.155
▁65.000	-13.1551
▁285	-13.1552
▁Grai	-13.1556
▁Monte	-13.156
.11.	-13.1577
▁UBMTTQ	-13.1577
▁Alonso	-13.1577
▁35-38	-13.1577
▁Email	-13.1578
▁xới	-13.1578
air	-13.1578
▁chảnh	-13.158
▁Pho	-13.1583
▁nám	-13.1584
.11.2019	-13.1585
▁khoắn	-13.1591
▁EVNNPC	-13.1591
sey	-13.1594
................	-13.1594
▁Singh	-13.1598
FDA	-13.1602
câu	-13.1608
▁ốt	-13.1609
▁Golan	-13.1614
mel	-13.1616
log	-13.1616
▁vò	-13.1621
▁7,4	-13.1628
▁18,5	-13.163
▁Trù	-13.163
▁306	-13.1631
PE	-13.1632
▁44%	-13.1637
▁5.0	-13.1637
▁Depay	-13.1638
▁Dơi	-13.1638
▁Hotspur	-13.1638
▁Nancy	-13.1638
▁Unai	-13.1638
▁Afrin	-13.1638
▁cưỡi	-13.1638
▁Taxi	-13.1638
▁Samson	-13.1639
thả	-13.1643
▁TTCP	-13.1646
▁Mont	-13.1647
▁Petrolimex	-13.1648
▁Pơ	-13.1649
LP	-13.1653
una	-13.1656
▁Goo	-13.1658
Singapore	-13.1662
lai	-13.1662
ATTP	-13.1665
▁Doha	-13.1667
▁3.2017	-13.1667
▁Vung	-13.1672
▁179	-13.168
uff	-13.1685
▁Rod	-13.1688
OR	-13.1689
▁chat	-13.1695
▁vơ	-13.1697
▁nặn	-13.1698
▁Alaba	-13.1699
▁Ghebreyesus	-13.1699
▁Wimbledon	-13.1699
▁VinMart	-13.1699
▁Libra	-13.1699
▁clo	-13.1699
▁êkíp	-13.1699
▁Michelle	-13.1699
▁quẹt	-13.1699
▁Thào	-13.17
▁62%	-13.1701
BL	-13.1701
-03	-13.1702
▁QNg	-13.1702
▁Shop	-13.1702
▁Sochi	-13.1702
SH	-13.1704
/18	-13.1707
▁muống	-13.172
Trần	-13.1723
Tài	-13.1723
oney	-13.1729
hoạt	-13.173
▁100-200	-13.1737
Độ	-13.1741
mai	-13.1742
hit	-13.1744
Bò	-13.1744
FO	-13.1747
▁hãn	-13.175
Thứ	-13.1756
▁Bồn	-13.1757
▁Psaki	-13.176
Aseansc	-13.176
▁Walker	-13.176
▁Deschamps	-13.1761
▁Titan	-13.1762
▁Line	-13.1762
▁Xích	-13.1763
QS	-13.1764
▁255	-13.1768
▁Tủa	-13.1769
▁Nợ	-13.1771
▁SBS	-13.1772
yen	-13.1774
3,8%	-13.1774
▁23.230	-13.1776
8,5%	-13.1777
▁Af	-13.1779
▁235	-13.1783
thiên	-13.1786
CLB	-13.1787
TKV	-13.1788
đây	-13.179
▁PP	-13.1791
▁14,5	-13.1791
▁232	-13.1792
box	-13.1793
▁21.000	-13.1794
▁nhỉ	-13.1794
▁328	-13.18
▁268	-13.1802
ESA	-13.1806
Ja	-13.1806
▁Your	-13.1809
▁305	-13.1816
▁Bayer	-13.1819
▁Thưa	-13.182
▁Guaido	-13.1822
▁Jorginho	-13.1822
▁Latvia	-13.1822
▁Vicem	-13.1822
▁concert	-13.1822
▁Changshin	-13.1822
▁Bukit	-13.1822
▁Crew	-13.1822
▁Kyodo	-13.1823
▁OCB	-13.1823
▁mĩ	-13.1824
▁Mul	-13.1825
▁Riyadh	-13.1826
▁Hỷ	-13.1827
▁Pierre	-13.1829
▁Sala	-13.183
▁Way	-13.1833
3,6%	-13.1834
.12.2018	-13.1834
▁Dam	-13.1836
eed	-13.1837
▁Cột	-13.1837
▁Khiết	-13.1838
▁Chai	-13.1845
chính	-13.1847
▁Sìn	-13.1847
Lịch	-13.1848
Miss	-13.1849
3,4%	-13.185
▁1999)	-13.1851
pur	-13.1855
lò	-13.1855
xây	-13.1856
▁Tha	-13.1856
▁Họa	-13.1857
▁tụi	-13.1866
▁325	-13.1868
▁vãng	-13.1869
▁520	-13.1873
▁DK	-13.1878
Car	-13.1878
▁Kali	-13.1878
WB	-13.1879
▁Rafa	-13.188
▁Girl	-13.1882
IV	-13.1882
bong	-13.1882
▁Aaron	-13.1884
▁Foundation	-13.1884
▁XNK	-13.1884
▁Ahmad	-13.1884
▁Muller	-13.1884
▁gởi	-13.1884
▁Interpol	-13.1884
▁Vision	-13.1885
▁Đẹp	-13.1885
anov	-13.1887
5,7%	-13.1887
▁ngẩm	-13.1887
▁Donal	-13.1887
▁xù	-13.1888
▁Trích	-13.1893
▁rọ	-13.1899
▁ROS	-13.1902
▁Sảng	-13.1905
▁Mall	-13.1908
▁thùy	-13.1908
▁Gre	-13.191
▁Take	-13.1918
▁Emma	-13.1918
yr	-13.1919
▁275	-13.192
SYT	-13.192
hạt	-13.1924
MV	-13.1926
▁Say	-13.1929
ICA	-13.1929
▁4.200	-13.1931
.11.2018	-13.1934
▁Good	-13.1945
▁chồn	-13.1946
▁tuồn	-13.1946
▁Pepe	-13.1946
▁MBS	-13.1947
▁Civic	-13.1947
▁Guinness	-13.1947
▁Remdesivir	-13.1947
▁poster	-13.1947
▁ngáy	-13.1947
▁PTTH	-13.1947
▁Kepa	-13.1947
▁239	-13.1947
▁Princess	-13.1948
▁Điếm	-13.1949
▁bỡ	-13.1949
eon	-13.1957
.9,	-13.1959
▁419	-13.1961
▁Taka	-13.1963
▁Nghè	-13.1963
▁Tí	-13.1969
vy	-13.197
wood	-13.1972
vỡ	-13.1974
bên	-13.1977
Tự	-13.1978
Cảnh	-13.1978
xê	-13.1978
▁Sand	-13.1979
▁vít	-13.1993
nổ	-13.1994
ics	-13.2003
▁Jalil	-13.201
▁Mikhail	-13.201
▁Castro	-13.201
▁buốt	-13.201
▁SNSD	-13.201
▁Nature	-13.201
▁Luiz	-13.201
▁Johan	-13.201
▁Nguyen	-13.2011
▁Chiếu	-13.2012
▁Thiem	-13.2013
▁Mời	-13.2014
▁húng	-13.2019
yama	-13.2021
ONE	-13.2022
mal	-13.2026
▁1.9.2020	-13.2027
▁del	-13.2027
▁265	-13.2032
ICO	-13.2033
▁chàm	-13.2034
TAND	-13.2036
Tàu	-13.2036
QT	-13.2038
▁Kom	-13.2038
Gạo	-13.2038
▁0,7%	-13.204
độc	-13.204
▁1955	-13.2046
▁24.000	-13.2046
Hộ	-13.2047
0.4	-13.2054
Căn	-13.2061
02)	-13.2062
2,4%	-13.2068
▁Hô	-13.2068
▁Cruise	-13.2072
▁Electronics	-13.2073
▁Viktor	-13.2073
▁sới	-13.2073
▁Davis	-13.2073
▁Gel	-13.2073
▁Joko	-13.2073
▁Jane	-13.2076
▁tã	-13.2078
2,6%	-13.2079
▁tie	-13.2088
▁2.2019	-13.2094
xuất	-13.21
Chắc	-13.21
Giọ	-13.2101
Phí	-13.2103
▁Shu	-13.2111
▁QN	-13.2112
▁33%	-13.2126
▁321	-13.2127
Phi	-13.2128
▁tắn	-13.2131
▁(6)	-13.2133
▁Jar	-13.2135
▁Adhanom	-13.2137
▁Hoffenheim	-13.2137
▁Lợn	-13.2137
▁Peugeot	-13.2137
▁Salvador	-13.2137
▁Shakhtar	-13.2137
▁bần	-13.2137
▁folic	-13.2137
▁Asean	-13.2137
▁rịch	-13.2137
▁Wilder	-13.2137
▁Prix	-13.2137
▁Champ	-13.2139
▁ATNĐ	-13.2139
phim	-13.214
▁098	-13.214
▁Xà	-13.214
▁23.150	-13.2141
▁bầy	-13.2141
▁2.2018	-13.2142
▁oxi	-13.2143
▁Nina	-13.2145
▁Sắt	-13.2146
▁3.600	-13.2148
ưới	-13.2153
Lê	-13.2155
▁héc	-13.216
đổ	-13.2163
Thần	-13.2164
luồng	-13.2164
▁1956	-13.2166
▁38%	-13.217
▁đong	-13.2176
▁Eat	-13.2179
gas	-13.2183
đáng	-13.2186
ía	-13.2188
▁Webb	-13.2189
▁227	-13.2192
gna	-13.2195
rùng	-13.2196
▁dụm	-13.2198
▁AirPods	-13.2201
▁Granada	-13.2201
▁Higuain	-13.2201
▁Vienna	-13.2201
▁nháy	-13.2201
▁Khâm	-13.2201
▁2035.	-13.2202
▁carbs	-13.2203
▁Nang	-13.2205
▁đờm	-13.2205
▁Av	-13.2215
cel	-13.2215
▁Bền	-13.2216
▁Gui	-13.2217
▁GRDP	-13.2217
▁Origin	-13.2223
lăng	-13.2223
▁Johns	-13.2223
EVFTA	-13.2228
Indonesia	-13.2228
đau	-13.2229
▁Wood	-13.2232
ical	-13.2232
▁Pink	-13.2233
form	-13.2243
30%	-13.2243
Jo	-13.2249
Bạc	-13.2251
▁363	-13.2252
3.175	-13.2262
▁Nico	-13.2262
BSC	-13.2265
▁ASOSAI	-13.2265
▁Infantino	-13.2265
▁Lindelof	-13.2265
▁Novichok	-13.2265
▁Prayut	-13.2265
▁cằm	-13.2265
▁index	-13.2265
▁poly	-13.2265
▁TCTD	-13.2265
▁Macau	-13.2265
▁135/2020/	-13.2267
▁EPS	-13.2267
-02	-13.2267
▁970	-13.2267
▁Wook	-13.2269
yun	-13.2271
▁Josep	-13.2273
▁trệt	-13.2275
arat	-13.2275
▁31.3.2020	-13.2278
5,8%	-13.2279
▁GPMB	-13.2279
ghế	-13.2283
▁(100	-13.2286
▁doping	-13.2287
khuynh	-13.2288
▁Tie	-13.2292
lừa	-13.2293
ngoại	-13.2293
BĐTV	-13.2293
dân	-13.2296
EMA	-13.2301
▁gù	-13.2307
for	-13.2307
gói	-13.2312
ngoài	-13.2316
▁Ariana	-13.233
▁Jacinda	-13.233
▁Mohammad	-13.233
▁Salisbury	-13.233
▁Windows	-13.233
▁Hertha	-13.233
▁núp	-13.2331
▁tuộc	-13.2333
▁tịnh	-13.2333
70%	-13.2334
▁nhọt	-13.2334
▁SOS	-13.2337
hò	-13.2337
▁1979)	-13.2342
▁50-100	-13.2347
▁sói	-13.2352
Campuchia	-13.2359
Phần	-13.2359
ụi	-13.2362
iếng	-13.2364
vụ	-13.2376
1.500	-13.2377
▁PG	-13.2381
eau	-13.2381
▁355	-13.2382
▁595/	-13.239
▁Digital	-13.2395
▁Geovane	-13.2395
▁Huyndai	-13.2395
▁Moyes	-13.2395
▁Nelson	-13.2395
▁Nestlé	-13.2395
▁ngẫm	-13.2395
▁piano	-13.2395
▁YEG	-13.2395
▁Garcia	-13.2395
▁Jamie	-13.2396
PDR	-13.2396
▁2017-2020	-13.2397
.01.2021	-13.2398
▁Nhiếp	-13.2398
▁23.270	-13.2399
▁412	-13.2402
thong	-13.2402
▁TBA	-13.2404
▁1.7.2020	-13.2407
AFF	-13.2407
atta	-13.2408
dou	-13.241
its	-13.2415
▁Hope	-13.2416
back	-13.2419
Mạnh	-13.2424
biệt	-13.2426
quái	-13.2429
▁trớ	-13.2431
▁VNG	-13.2431
virus	-13.2434
▁237	-13.2434
chân	-13.2436
▁Joan	-13.2441
▁Sane	-13.2445
▁ná	-13.2447
▁More	-13.2448
els	-13.2449
mang	-13.2455
▁Anna	-13.2456
▁249	-13.2456
75%	-13.246
▁Alvaro	-13.2461
▁Complex	-13.2461
▁Lloris	-13.2461
▁Minnesota	-13.2461
▁Rimario	-13.2461
▁Roscosmos	-13.2461
▁Sassuolo	-13.2461
▁Tunisia	-13.2461
▁Soobin	-13.2461
▁kiệu	-13.2461
▁file	-13.2462
▁nhỡ	-13.2462
▁hotline	-13.2462
▁2013-2018	-13.2462
Lai	-13.2463
▁sô	-13.2463
▁Nuôi	-13.2464
ull	-13.247
▁háng	-13.2474
VEC	-13.2476
▁550.000	-13.2484
2,7%	-13.2488
▁234	-13.2489
▁5.2022	-13.249
▁Xiaomi	-13.249
nhiều	-13.2492
▁274	-13.2493
▁Ice	-13.2495
▁304	-13.2495
▁diêm	-13.2496
▁Ong	-13.2498
Sóc	-13.25
▁720	-13.2512
coin	-13.2512
Mong	-13.2512
Cây	-13.2516
▁Nas	-13.2519
tle	-13.2523
▁Bordeaux	-13.2527
▁Kennedy	-13.2527
▁McGregor	-13.2527
▁Teerasil	-13.2527
▁Xpander	-13.2527
▁lằn	-13.2527
town	-13.2528
▁Coca	-13.2529
▁MWG	-13.253
▁Dạy	-13.253
▁Kiêu	-13.2532
▁lóng	-13.2533
▁11,5	-13.2534
▁Lady	-13.2538
▁Vải	-13.2541
090	-13.2543
▁Hiro	-13.2543
2024	-13.2544
ATM	-13.2544
7,8%	-13.2544
▁31.12.2019	-13.2545
lie	-13.256
màu	-13.256
Đống	-13.2562
kham	-13.2564
sick	-13.2565
▁Len	-13.2572
▁Nova	-13.2572
▁32%	-13.2572
ool	-13.2576
▁State	-13.2576
▁269	-13.2578
mẫu	-13.2584
▁NDT	-13.2586
1-0	-13.2594
▁Ibrahim	-13.2594
▁Ltd	-13.2594
▁Adele	-13.2594
▁Ohio	-13.2594
▁View	-13.2595
▁Tiger	-13.2597
ology	-13.2597
▁Rice	-13.2598
thế	-13.2602
ient	-13.2603
bat	-13.2607
▁KN	-13.261
▁carb	-13.2611
imex	-13.2612
▁Kris	-13.2614
▁mố	-13.2621
linh	-13.2622
Thầy	-13.2625
Lý	-13.2626
3,2%	-13.2633
PPP	-13.2637
Sport	-13.2638
▁nọ	-13.264
▁Chun	-13.2648
▁Pác	-13.2652
▁Got	-13.2653
▁570	-13.2653
zon	-13.2655
món	-13.2657
ẹo	-13.2657
▁Gazprom	-13.2661
▁Beirut	-13.2661
▁Bhutan	-13.2661
▁Chevrolet	-13.2661
▁Narendra	-13.2661
▁Udinese	-13.2661
▁Vinicius	-13.2661
TTLT	-13.2661
▁ngút	-13.2661
▁Yoshida	-13.2661
hà	-13.2662
▁Walsh	-13.2663
▁Đun	-13.2663
▁GPS	-13.2664
▁nọc	-13.2665
▁Leng	-13.2666
▁huyệt	-13.2668
hủy	-13.267
▁Dean	-13.267
phu	-13.2671
rong	-13.2673
25.000	-13.2676
90%	-13.2677
phí	-13.2678
▁LNG	-13.2685
ted	-13.2685
▁nhô	-13.2686
yev	-13.269
huyền	-13.269
Sóng	-13.2692
cần	-13.2692
TLV	-13.2692
▁312	-13.2695
▁Clar	-13.2699
▁Phá	-13.2699
ray	-13.27
ẹp	-13.2701
▁ez	-13.2704
▁tui	-13.2705
asi	-13.2709
99%	-13.2712
avan	-13.2714
▁Bể	-13.2715
bri	-13.2716
book	-13.2718
oto	-13.2719
▁Reg	-13.2719
boy	-13.2719
cán	-13.272
.2005	-13.2723
gưỡng	-13.2725
Snowdrop	-13.2729
▁Dispatch	-13.2729
▁Friday	-13.2729
▁Kiệm	-13.2729
▁Luxembourg	-13.2729
▁Mahrez	-13.2729
▁Umtiti	-13.2729
▁dioxide	-13.2729
▁Nantes	-13.2729
▁rơmoóc	-13.2729
Cloud	-13.2729
▁TTATGT	-13.2729
▁rục	-13.2729
▁Army	-13.2729
▁Hyuk	-13.273
Savage	-13.273
cặp	-13.2732
▁246	-13.2732
GV	-13.2734
arif	-13.2735
hoáng	-13.2735
▁UNICEF	-13.2736
▁Latinh	-13.2736
uch	-13.2739
▁Sup	-13.2739
▁Kì	-13.2742
▁18-20	-13.2743
Pay	-13.2744
TTTT	-13.2749
▁Mari	-13.275
TNMT	-13.2752
▁nhảm	-13.2753
▁rạ	-13.276
UEFA	-13.276
▁Mos	-13.2763
tử	-13.2765
rina	-13.2768
▁Ce	-13.277
▁5,1	-13.2776
▁Phì	-13.2777
▁Xay	-13.278
▁22,5	-13.2781
EF	-13.2795
ILO	-13.2796
/2011/	-13.2797
▁Dhabi	-13.2797
▁Ecopark	-13.2797
▁Genoa	-13.2797
▁Jersey	-13.2797
▁ghề	-13.2797
▁ngoãn	-13.2797
club	-13.2797
▁cạy	-13.2797
▁Dimas	-13.2798
TTr	-13.2798
▁Matsui	-13.2799
▁Dias	-13.2801
▁LALISA	-13.2804
lộ	-13.2806
▁7,3	-13.2807
▁5,9	-13.2809
▁sài	-13.2809
▁Béo	-13.281
▁mòi	-13.2813
4,8%	-13.2814
▁Tẩy	-13.2818
▁540	-13.2821
test	-13.2825
ATVSLĐ	-13.2828
Chúc	-13.2832
▁Kona	-13.2835
▁6.0	-13.2843
▁UBT	-13.2848
▁390	-13.2855
iva	-13.2863
▁Bosnia	-13.2865
▁Columbia	-13.2865
▁Leonardo	-13.2865
▁Puerto	-13.2865
▁Tucson	-13.2865
▁cữu	-13.2865
▁dẫm	-13.2865
▁tợn	-13.2865
▁PSY	-13.2865
▁kiốt	-13.2866
▁Team	-13.2866
mcg	-13.2867
Mar	-13.2868
▁23.160	-13.2869
▁Bphone	-13.2869
▁tía	-13.2871
▁288	-13.2871
▁15-17	-13.2873
ote	-13.2873
sang	-13.2874
▁Mich	-13.2874
▁EPC	-13.2874
att	-13.2876
▁MiG	-13.2876
▁that	-13.2882
oong	-13.2886
tive	-13.289
Vòng	-13.2897
Nghiên	-13.2897
Nhóm	-13.2898
▁024	-13.2905
cũng	-13.2908
Hy	-13.2908
▁Ngộ	-13.2909
bóng	-13.2909
▁Thang	-13.2913
▁phỉ	-13.2922
▁Mata	-13.2926
▁Duma	-13.2927
▁Bologna	-13.2934
▁Buffett	-13.2934
▁Cagliari	-13.2934
▁Icardi	-13.2934
▁Independent	-13.2934
▁Meghan	-13.2934
▁Pulisic	-13.2934
▁Strasbourg	-13.2934
▁nhợt	-13.2934
▁Merlo	-13.2935
1,7%	-13.2938
▁Wayne	-13.294
▁NHK	-13.2941
▁Alan	-13.2942
▁2016)	-13.2943
▁Nord	-13.2945
▁Luyến	-13.2946
down	-13.2948
Mày	-13.2951
dù	-13.2952
xét	-13.2969
▁BĐTV	-13.2975
LL	-13.2975
▁American	-13.2977
▁Berg	-13.2978
▁335	-13.2989
▁anti	-13.2996
mobile	-13.2998
New	-13.2999
▁Rover	-13.3003
▁hack	-13.3003
▁Auckland	-13.3004
▁Cerato	-13.3004
▁Logistics	-13.3004
▁Herald	-13.3004
▁KIA	-13.3004
▁nhòa	-13.3004
▁Kaity	-13.3005
▁23-25	-13.3007
▁barie	-13.3009
▁Khiếu	-13.301
▁Koh	-13.301
tung	-13.3013
▁FAM	-13.3018
usa	-13.3024
hợ	-13.3026
▁72%	-13.3027
Tiến	-13.3036
1-1	-13.3038
VPF	-13.304
▁43%	-13.3042
7.500	-13.3048
giả	-13.3055
4,5%	-13.3062
▁36.000	-13.3062
review	-13.3065
Sử	-13.3065
▁FTA	-13.3066
.300.000	-13.3068
kip	-13.3069
ịch	-13.307
▁ngò	-13.3071
▁Asensio	-13.3074
▁Coteccons	-13.3074
▁Protein	-13.3074
▁Vinasun	-13.3074
▁idol	-13.3074
▁Asset	-13.3074
▁Federic	-13.3074
▁sẩy	-13.3075
▁Jota	-13.3075
▁Trống	-13.3076
▁tráo	-13.3077
▁Sâu	-13.3077
▁7,6	-13.3079
▁CGV	-13.308
▁nôi	-13.3081
▁Karl	-13.3081
▁Cairo	-13.3082
▁Kal	-13.3083
Mobile	-13.3107
3,7%	-13.3116
▁Lật	-13.3121
▁Alba	-13.3123
nhất	-13.3123
▁Mate	-13.3128
ĐS	-13.3136
▁4,5%	-13.314
▁CBCCVC	-13.3144
▁Alaves	-13.3144
▁Curiosity	-13.3144
▁Infinity	-13.3144
▁Lautaro	-13.3144
▁Manhattan	-13.3144
▁McTominay	-13.3144
▁Messenger	-13.3144
▁Network	-13.3144
▁Nưa	-13.3144
▁Stegen	-13.3144
▁Vinaphone	-13.3144
▁liềm	-13.3144
▁Phớc	-13.3145
▁6.2017	-13.3145
▁thau	-13.3165
▁238	-13.3166
▁Bỏng	-13.3167
Bóng	-13.3178
Trọng	-13.3178
World	-13.3178
bật	-13.3178
cướp	-13.3178
vật	-13.3178
Chiếc	-13.3178
▁kèn	-13.3179
thắng	-13.3179
▁trụy	-13.3183
Hệ	-13.3183
▁840	-13.3184
▁bèo	-13.3184
▁Rub	-13.3186
rỗi	-13.3196
use	-13.3197
-57	-13.32
▁8,3	-13.3207
phố	-13.3208
▁Abdul	-13.321
▁lươn	-13.3214
▁Sunshine	-13.3215
▁estrogen	-13.3215
▁ngợp	-13.3215
▁ĐHĐCĐ	-13.3215
Selecao	-13.3215
▁Lóng	-13.3215
▁SXKD	-13.3215
15/2015/	-13.3215
▁Kawin	-13.3215
▁Gede	-13.3216
▁Ngụy	-13.3216
▁hăm	-13.3216
▁Sunny	-13.3216
▁dượng	-13.3216
▁phất	-13.3217
▁HSG	-13.3219
▁Lock	-13.3221
▁Tào	-13.3221
▁1998)	-13.3225
▁TMS	-13.3229
▁Bô	-13.3229
ies	-13.3232
▁lẩu	-13.3233
nhằm	-13.3241
ota	-13.3248
▁42%	-13.3256
cực	-13.3258
▁470	-13.3264
▁Rủ	-13.3268
▁Lima	-13.3273
▁rạc	-13.3281
▁Tó	-13.3285
▁Ranger	-13.3286
▁Clasico	-13.3286
▁Evergrande	-13.3286
▁Kiểu	-13.3286
▁Massachusetts	-13.3286
▁Ronaldinho	-13.3286
▁Sapporo	-13.3286
▁Samuel	-13.3286
▁Wendy	-13.3287
▁MoMo	-13.3287
▁Gerard	-13.3287
▁chẵn	-13.3287
,04%	-13.3292
▁BID	-13.3293
▁pH	-13.3294
▁1981)	-13.3294
obi	-13.3295
ump	-13.3296
hình	-13.3299
/17	-13.3301
▁53%	-13.3301
▁3.400	-13.3302
Vườn	-13.3304
▁PSSI	-13.3311
uga	-13.3315
▁8.0	-13.3315
ão	-13.3315
▁Keo	-13.3316
▁SK	-13.3316
Germain	-13.3321
Mặt	-13.3321
Thụy	-13.3321
thích	-13.3322
▁0,8%	-13.3328
Re	-13.3332
▁Mao	-13.3334
▁27.000	-13.3334
nhá	-13.3338
ago	-13.334
▁Kas	-13.3343
35%	-13.3346
▁30.6.2021	-13.3347
▁lố	-13.335
▁Albert	-13.3358
Etienne	-13.3358
▁Lựu	-13.3358
▁Paralympic	-13.3358
▁Worldometers	-13.3358
▁bậy	-13.3358
▁Hudson	-13.3358
▁Renard	-13.3359
▁chưởng	-13.3359
thua	-13.3359
▁416	-13.3361
▁thoi	-13.3362
▁37%	-13.3363
▁Isco	-13.3363
▁254	-13.3366
even	-13.3367
▁chạn	-13.337
apo	-13.3374
▁9,2	-13.3378
▁Trai	-13.3378
7,7%	-13.3385
▁1980)	-13.3391
▁GO	-13.3391
thổi	-13.3394
Tuyển	-13.3394
phương	-13.3394
Trái	-13.3395
▁Res	-13.3395
vị	-13.3396
lột	-13.3399
vũ	-13.3406
giết	-13.3407
mới	-13.3408
5/2020/	-13.3412
▁2000)	-13.3413
▁há	-13.3416
▁Cấu	-13.3431
▁Phnom	-13.3431
▁Salzburg	-13.3431
▁cằn	-13.3431
▁nhõm	-13.3431
▁Starlink	-13.3431
▁Maryland	-13.3431
▁vẹo	-13.3431
▁đuốc	-13.3431
▁chầu	-13.3431
▁Given	-13.3431
▁Moura	-13.3432
▁22-24	-13.3433
nhưng	-13.3435
▁chạc	-13.3435
▁Mainz	-13.3443
▁41,5	-13.3444
▁Dành	-13.3447
▁68%	-13.3449
No	-13.3453
iềng	-13.3455
▁rú	-13.3456
điên	-13.3468
đêm	-13.3471
▁2-5	-13.3472
▁2,5%	-13.3475
My	-13.3475
▁Thà	-13.3476
▁GI	-13.3476
▁Sing	-13.3479
news	-13.3485
sát	-13.3485
rap	-13.3496
▁5,5%	-13.3498
Già	-13.3498
▁Philipp	-13.3499
6,50	-13.3502
▁Montenegro	-13.3504
▁Neuer	-13.3504
▁carton	-13.3504
▁Hillary	-13.3504
▁Bremen	-13.3504
▁Nhượng	-13.3504
▁28.7.2019)	-13.3504
▁Geun	-13.3505
verse	-13.3506
▁Sỏi	-13.3507
▁câm	-13.3507
▁(2015	-13.3511
▁Newton	-13.3512
▁326	-13.3515
▁bùi	-13.3517
hội	-13.3518
▁6,1	-13.3523
▁Tak	-13.3524
▁GDTX	-13.3528
ava	-13.3531
▁Poly	-13.3533
▁28.000	-13.3535
▁CNCH	-13.3535
ASEAN	-13.354
Giấy	-13.354
eva	-13.3547
ense	-13.3547
▁khứu	-13.3548
▁Kara	-13.3549
▁gào	-13.355
▁Kay	-13.3553
Ngô	-13.3555
▁Test	-13.3562
.6.2018	-13.3567
wei	-13.3573
▁Ball	-13.3575
▁Andersen	-13.3577
▁Joachim	-13.3577
▁Sorento	-13.3577
▁kilomet	-13.3577
▁30.4-1.5	-13.3577
▁Tuyensinh	-13.3577
▁Thiểm	-13.3578
IRGC	-13.3578
inamo	-13.3579
▁Jason	-13.3579
▁pano	-13.358
▁Điềm	-13.358
▁Hugo	-13.358
thai	-13.3581
▁Der	-13.3582
▁Tàng	-13.3582
▁11-14	-13.3584
▁Phiêu	-13.3585
▁1.350	-13.3588
2/2020/	-13.3589
moto	-13.3589
▁Gã	-13.3595
set	-13.3597
ví	-13.3597
đề	-13.3598
▁Penh	-13.36
1/2017/	-13.3601
▁1977)	-13.3608
vận	-13.3615
Bước	-13.3617
giây	-13.3618
Áo	-13.3618
tim	-13.3619
late	-13.3619
▁Rey	-13.362
rone	-13.3621
▁303	-13.363
Trà	-13.3634
▁HR	-13.364
/2013	-13.3641
▁lim	-13.3642
sing	-13.3645
sel	-13.365
▁LHP	-13.3651
▁Tủ	-13.3651
ivo	-13.3651
▁Bướu	-13.3651
▁Essex	-13.3651
▁Julian	-13.3651
▁Kishida	-13.3651
▁Minneapolis	-13.3651
▁Valladolid	-13.3651
▁dỏm	-13.3651
▁sẫm	-13.3651
▁giũ	-13.3652
▁chôm	-13.3652
▁Lauren	-13.3652
▁JMG	-13.3652
▁Cruz	-13.3652
▁Yangon	-13.3653
chel	-13.3653
▁nghén	-13.3654
▁lẹ	-13.3656
▁Vpop	-13.3656
▁ETC	-13.3659
▁3/2	-13.366
▁9,8	-13.3662
▁Him	-13.3663
9/2021/	-13.3664
▁Ry	-13.3675
Chú	-13.3682
▁Rich	-13.369
Được	-13.369
▁Ein	-13.3691
liều	-13.3691
Best	-13.3697
ACV	-13.3698
▁1976)	-13.37
rill	-13.3701
▁12.2016	-13.3701
anna	-13.3702
eal	-13.3703
▁Hans	-13.3706
▁Phán	-13.3715
Che	-13.3717
6,6%	-13.3717
▁Sợ	-13.3718
▁Anderson	-13.3726
▁Busquets	-13.3726
▁MacBook	-13.3726
▁Phoenix	-13.3726
▁Queensland	-13.3726
▁Savills	-13.3726
▁Vinmec	-13.3726
▁Sheikh	-13.3726
▁NTBD	-13.3726
▁Vardy	-13.3726
▁êkip	-13.3726
▁Force	-13.3726
▁Gành	-13.3728
latan	-13.3728
ward	-13.3732
▁Raul	-13.3732
0/2015/	-13.3733
Cứ	-13.3734
hét	-13.3734
▁71%	-13.3734
▁School	-13.3737
xả	-13.374
4.500	-13.3742
▁Cạn	-13.3748
▁6,5%	-13.3749
▁Đồi	-13.375
enit	-13.3752
▁ECB	-13.3756
Gangnam	-13.376
▁Shark	-13.3761
RP	-13.3762
pus	-13.3762
Tỉnh	-13.3764
mà	-13.3765
▁40-50	-13.3767
Vô	-13.3774
▁End	-13.3776
lấy	-13.378
▁XXII	-13.3794
▁220.000	-13.3801
▁Bkav	-13.3801
▁Ebola	-13.3801
▁Larry	-13.3801
▁Maldives	-13.3801
▁Matthew	-13.3801
▁Muhammad	-13.3801
▁Rublev	-13.3801
▁Patriot	-13.3801
▁with	-13.3801
▁NSNN	-13.3802
▁Forest	-13.3802
▁Vietbank	-13.3802
▁Guus	-13.3802
▁thét	-13.3803
▁Síp	-13.3803
racht	-13.3804
▁73%	-13.3807
▁vạt	-13.3808
▁xình	-13.3808
sho	-13.381
▁Húc	-13.381
3/2021/	-13.3813
▁Tẻ	-13.3814
▁Key	-13.3815
▁Rin	-13.3817
▁ICBM	-13.3818
tơ	-13.382
HE	-13.3821
▁CĐVC	-13.3826
ườm	-13.3828
anth	-13.3828
▁CSI	-13.3834
Hơn	-13.384
VHTTDL	-13.384
liên	-13.3841
117	-13.3843
lợi	-13.3843
Vị	-13.3845
▁910	-13.3845
tiêu	-13.3847
▁Cat	-13.3847
▁he	-13.3849
bal	-13.3855
Cola	-13.3859
15%	-13.386
săn	-13.3861
▁lư	-13.3865
▁413	-13.3867
BQL	-13.3867
pper	-13.3874
õng	-13.3874
▁Calisto	-13.3877
▁Lugansk	-13.3877
▁Studio	-13.3877
EVNNPT	-13.3877
▁ketamin	-13.3877
opmart	-13.3877
-97%	-13.3878
▁biếc	-13.3878
▁ANTT	-13.3878
▁Aeon	-13.388
bot	-13.388
▁USAID	-13.3896
Mai	-13.3899
▁bon	-13.39
▁Petr	-13.3904
▁Prime	-13.3905
▁SDF	-13.3906
9,5%	-13.3907
▁Aung	-13.391
road	-13.3915
Phiên	-13.3917
Thường	-13.3917
trẻ	-13.3917
sử	-13.392
Hỗ	-13.3924
78%	-13.3924
tái	-13.3927
itz	-13.3928
iện	-13.3929
6,3%	-13.393
▁Has	-13.3931
ute	-13.3932
vẫn	-13.3935
SJC	-13.394
▁Ôn	-13.394
▁56%	-13.3941
evac	-13.3942
sic	-13.3952
Karabakh	-13.3953
▁Eibar	-13.3953
▁University	-13.3953
▁buồm	-13.3953
▁hotgirl	-13.3953
▁LHQ	-13.3953
▁coronavirus	-13.3953
▁nguôi	-13.3953
inomoto	-13.3953
▁guồng	-13.3953
Hủy	-13.3954
▁Ker	-13.3955
9,2%	-13.3955
▁Blade	-13.3956
▁QNa	-13.3957
VAMA	-13.3959
▁Tánh	-13.3962
▁Thản	-13.3964
5,9%	-13.3966
gel	-13.3966
▁CBCĐ	-13.3967
▁23.110	-13.3968
▁yen	-13.3968
▁KTNN	-13.397
▁Tắc	-13.397
▁EV	-13.3971
▁63%	-13.3972
▁IOC	-13.3973
▁34%	-13.3982
▁0-5	-13.3988
▁CVT	-13.399
Sham	-13.3993
▁Kê	-13.3994
▁hàu	-13.4003
▁Tá	-13.4003
▁Marin	-13.4003
inger	-13.4005
ECO	-13.4006
▁Tạng	-13.4015
BXD	-13.4016
.800.000	-13.4017
▁354	-13.4018
eus	-13.4023
▁Olympi	-13.4026
▁Bentley	-13.403
▁Chosun	-13.403
▁Donnarumma	-13.403
▁ESPN	-13.403
▁Jezero	-13.403
▁Lốp	-13.403
▁Slovan	-13.403
▁lẫm	-13.403
▁rầu	-13.403
▁tennis	-13.403
▁tĩu	-13.403
▁Khâu	-13.4031
▁Ruben	-13.4031
▁xoong	-13.4031
▁Tonga	-13.4031
-96%	-13.4032
▁Robertson	-13.4032
▁nháo	-13.4032
-2016	-13.4033
▁NVL	-13.4033
▁phiệt	-13.4033
▁sấp	-13.4033
▁nao	-13.4034
▁Hoon	-13.4036
▁1.750	-13.4038
LE	-13.4045
▁10-13	-13.4048
▁Medic	-13.405
UK	-13.4054
▁Down	-13.4059
show	-13.4063
Be	-13.4063
▁3.700	-13.4064
biz	-13.407
Group	-13.4071
Min	-13.4071
160	-13.4072
Lời	-13.4074
Lương	-13.4075
▁cano	-13.4076
▁Sony	-13.4077
▁Hwa	-13.4079
Sức	-13.4079
cảnh	-13.4082
đủ	-13.4083
1996	-13.4084
550	-13.4088
SXH	-13.4095
Pop	-13.4101
▁Wer	-13.4103
▁32.000	-13.4105
ermission	-13.4108
▁Fakhrizadeh	-13.4108
▁Gọi	-13.4108
▁HKTT	-13.4108
▁Housing	-13.4108
▁Hận	-13.4108
▁Moldova	-13.4108
▁Rodgers	-13.4108
▁Angelina	-13.4108
▁Holland	-13.4108
▁Phèo	-13.4108
▁Rapper	-13.4108
▁Luke	-13.4109
▁Rangers	-13.4111
▁Múa	-13.4112
2009	-13.4113
▁Tròn	-13.4114
▁Laden	-13.4114
lay	-13.4121
▁IAEA	-13.4121
▁36,8	-13.4121
▁Press	-13.4131
,07%	-13.4133
Bác	-13.4141
▁sú	-13.4144
Se	-13.4147
EAS	-13.4148
tôi	-13.4149
4,6%	-13.4154
▁Họp	-13.4157
sao	-13.4158
4,9%	-13.4177
▁Britney	-13.4186
▁SantaFe	-13.4186
▁Transfermarkt	-13.4186
▁Virgil	-13.4186
▁ADB	-13.4186
▁JICA	-13.4186
▁chước	-13.4186
▁Tyson	-13.4187
▁thóc	-13.4187
▁Wake	-13.4187
▁Greg	-13.4187
▁555	-13.4189
danh	-13.419
▁Quà	-13.4193
▁Bút	-13.4193
▁Vò	-13.4195
▁Rối	-13.4198
tics	-13.4203
▁Ngạc	-13.4216
▁dioxin	-13.4219
▁Mino	-13.422
▁Gái	-13.4223
▁230.000	-13.4224
pines	-13.4231
▁Beat	-13.4231
xếp	-13.4231
▁Ná	-13.4237
2008	-13.4241
Home	-13.4241
nis	-13.4244
cánh	-13.4249
▁thỏ	-13.4254
▁Bắn	-13.4258
ngồi	-13.4259
▁India	-13.4261
point	-13.4265
▁Giggs	-13.4265
▁Pickford	-13.4265
▁Poroshenko	-13.4265
▁Taekwang	-13.4265
▁dặt	-13.4265
▁Jenner	-13.4265
▁chỏ	-13.4265
▁TNCN	-13.4265
▁Goldman	-13.4266
▁MAX	-13.4266
▁kitco	-13.4266
▁Đới	-13.4267
▁Midu	-13.4269
▁Douma	-13.4271
▁Lồng	-13.4273
▁12-13	-13.4276
6,9%	-13.4278
141	-13.4279
▁Hara	-13.4279
▁9,3	-13.428
▁ngẩn	-13.429
vốn	-13.4292
oke	-13.4296
999	-13.4297
▁banking	-13.4302
115	-13.4303
cháu	-13.4307
nghỉ	-13.4307
triệu	-13.4307
dễ	-13.4309
▁Joy	-13.4315
hiệu	-13.4321
Top	-13.4326
song	-13.4328
▁Seong	-13.4331
▁ắng	-13.4332
4,3%	-13.4334
▁Trứ	-13.4336
Bissaka	-13.4344
▁Brendan	-13.4344
▁Florentino	-13.4344
▁Helsinki	-13.4344
▁Jamaica	-13.4344
▁ngầu	-13.4344
Raheem	-13.4344
▁chườm	-13.4344
▁Parc	-13.4346
▁0,9%	-13.4348
▁VNCB	-13.4349
hung	-13.435
▁Lừ	-13.4351
▁Dốc	-13.4353
▁EVNSPC	-13.4359
▁PVcomBank	-13.4363
▁1975)	-13.4364
aff	-13.4365
▁Bee	-13.4372
▁Wat	-13.4373
▁6,0	-13.4377
▁Jens	-13.438
dt	-13.4386
Tiên	-13.4387
ĐBQH	-13.4387
Tinh	-13.4387
▁2027	-13.439
-2022	-13.4391
Big	-13.4392
180	-13.4395
tác	-13.44
▁1440	-13.4402
tông	-13.4411
atsu	-13.4412
▁Mee	-13.4413
zza	-13.4413
str	-13.4418
,16%	-13.4422
▁Virgin	-13.4423
▁Montpellier	-13.4424
▁carotenoid	-13.4424
▁condotel	-13.4424
▁(60-90	-13.4424
▁showroom	-13.4424
▁Novaland	-13.4424
▁Khuyên	-13.4424
▁Wolf	-13.4424
▁Seungri	-13.4425
▁inox	-13.4425
ska	-13.4427
▁PGĐ	-13.4427
▁Mobi	-13.4428
bol	-13.444
▁Vẽ	-13.4449
▁Sher	-13.4454
▁1.500.000	-13.4455
▁Dây	-13.4457
gawa	-13.4459
▁6.2022	-13.4461
▁10-20	-13.4467
Ukraina	-13.4468
nâng	-13.4468
▁Ida	-13.4468
phê	-13.4468
chương	-13.447
Kế	-13.447
nổi	-13.4471
Bỉ	-13.4473
less	-13.4475
4,1	-13.4475
▁1972)	-13.4485
ove	-13.4487
6,2%	-13.4487
văn	-13.4495
1,6%	-13.45
▁2-6	-13.45
▁Arthur	-13.4505
▁Ngòi	-13.4505
▁Novosti	-13.4505
▁Sebastian	-13.4505
▁Spears	-13.4505
▁mướn	-13.4505
▁nghiễm	-13.4505
▁AUD	-13.4505
▁VinID	-13.4505
▁Levy	-13.4505
▁Danny	-13.4505
▁Market	-13.4506
▁vẩy	-13.4506
▁nẻo	-13.4506
▁Đoài	-13.4508
▁Trâu	-13.4508
▁sáo	-13.4508
▁Choong	-13.451
▁mốt	-13.4512
▁46%	-13.4512
▁1.250	-13.4515
▁Vẻ	-13.4515
▁2005)	-13.4516
▁Tỏ	-13.4518
2021	-13.4519
▁XO	-13.4522
▁Eo	-13.4524
380	-13.4528
ille	-13.4529
▁Non	-13.453
▁Sie	-13.4531
0/2020/	-13.4535
▁Bei	-13.4537
7,3%	-13.4538
▁7,1	-13.4538
950	-13.4538
El	-13.4546
CPTPP	-13.4549
▁353	-13.4552
9,75	-13.4553
nhập	-13.4556
▁1,2%	-13.4556
▁1,25	-13.4561
▁4.000.000	-13.4561
▁3,5%	-13.4561
▁6,8%	-13.4562
▁Bún	-13.4566
15.000	-13.4577
rna	-13.4581
Sản	-13.4582
▁Casemiro	-13.4586
▁Guatemala	-13.4586
▁QCVN	-13.4586
▁Reagan	-13.4586
▁Reims	-13.4586
▁nệm	-13.4586
▁CCTV	-13.4586
▁Derek	-13.4586
▁Ashley	-13.4586
▁Stoke	-13.4586
BQP	-13.4586
▁Nhỏ	-13.4586
▁Pinto	-13.4586
8/2014/	-13.4587
▁Caribbean	-13.4587
▁Ngoan	-13.4587
▁Hawk	-13.4587
▁Kuin	-13.4589
▁(7)	-13.4591
▁cup	-13.4591
▁24-26	-13.4591
▁Lạn	-13.4592
ETH	-13.4595
▁30.10.2020	-13.4596
▁UFC	-13.4596
▁1,6%	-13.4598
▁Tite	-13.46
▁Mì	-13.4601
▁Soul	-13.4602
▁Solar	-13.4609
5,2%	-13.461
Buồn	-13.4613
SEA	-13.4614
▁5-11	-13.4615
▁xú	-13.4624
▁HO	-13.4627
Tàng	-13.4631
MTTQ	-13.4631
đấu	-13.4631
khối	-13.4632
cũ	-13.4634
Hz	-13.4635
Rút	-13.4638
3,5%	-13.4639
cent	-13.4641
enny	-13.4641
1997	-13.4642
▁cỏi	-13.4643
▁Are	-13.4644
▁760	-13.4649
76%	-13.4662
XPVPHC	-13.4668
Xấu	-13.4668
▁Carrick	-13.4668
▁Cuomo	-13.4668
▁Gyeongsang	-13.4668
▁Hormuz	-13.4668
▁Hẳn	-13.4668
▁JYP	-13.4668
▁THACO	-13.4668
▁Thỉnh	-13.4668
▁Albania	-13.4668
▁ĐHQGHN	-13.4668
▁Mainichi	-13.4668
▁Kasper	-13.4668
▁SANA	-13.4668
▁Leyen	-13.4668
▁nện	-13.4668
drama	-13.4668
mắc	-13.467
pl	-13.4671
▁25-27	-13.4672
▁Sạch	-13.4672
ovich	-13.4674
▁duỗi	-13.4676
7,6%	-13.4677
▁MAUR	-13.4679
▁84%	-13.4682
▁15/2020/	-13.4683
▁Mát	-13.4685
▁20-22	-13.4687
hụp	-13.4688
▁Dụ	-13.4696
▁67%	-13.4697
lock	-13.4699
▁777	-13.4706
▁58%	-13.4712
Đôi	-13.4714
phù	-13.4714
Khoa	-13.4716
lời	-13.4716
đổi	-13.4717
tư	-13.4719
▁IPC	-13.472
▁Mary	-13.4724
Minh	-13.4724
động	-13.4727
▁KBSV	-13.4729
cap	-13.4733
,09%	-13.4736
lum	-13.474
tum	-13.4741
CSI	-13.4744
Land	-13.4749
etti	-13.4749
▁Acecook	-13.4751
▁Adidas	-13.4751
▁Ederson	-13.4751
▁Freiburg	-13.4751
▁Himalaya	-13.4751
▁Pedri	-13.4751
▁Xóm	-13.4751
▁debut	-13.4751
▁hẻo	-13.4751
▁sấm	-13.4751
▁Ghana	-13.4751
▁LPB	-13.4751
▁Naomi	-13.4751
▁Navas	-13.4751
▁boong	-13.4752
▁Iphone	-13.4752
▁Kool	-13.4755
▁Dứa	-13.4755
lade	-13.4756
ids	-13.4756
▁8,2	-13.4756
▁Bế	-13.4756
▁33.000	-13.4758
▁VRE	-13.4758
▁Albums	-13.4758
▁GHPGVN	-13.476
RB	-13.4763
▁Lải	-13.4763
Muộn	-13.4763
▁Tắm	-13.4764
▁8-12	-13.4768
006	-13.4768
360	-13.4771
▁405	-13.4774
▁Andrey	-13.4775
▁Goodi	-13.4783
▁Sel	-13.4789
more	-13.4795
▁Sô	-13.4797
riêng	-13.4797
Trời	-13.4797
viên	-13.4799
2,3%	-13.4806
▁9.2016	-13.4809
▁Mid	-13.4815
▁Cash	-13.4816
▁bươ	-13.482
▁Bối	-13.482
nạn	-13.4822
▁1973)	-13.4824
wen	-13.4827
2009/	-13.4827
▁dãi	-13.4833
SAGRI	-13.4834
▁Alfred	-13.4834
▁British	-13.4834
▁Conference	-13.4834
▁Delaware	-13.4834
▁Gruzia	-13.4834
▁Marawi	-13.4834
▁Nasdaq	-13.4834
▁Secret	-13.4834
▁Securities	-13.4834
▁Sullivan	-13.4834
▁Supachai	-13.4834
▁mướp	-13.4834
HKQT	-13.4834
▁Jansen	-13.4834
▁hắc	-13.4835
▁block	-13.4835
.1995	-13.4835
▁Mauriz	-13.4835
▁Miên	-13.4837
▁Đợi	-13.4838
▁(-0,	-13.4839
▁Seop	-13.4842
▁Bạt	-13.4842
▁Sát	-13.4848
▁66%	-13.4848
▁Kate	-13.485
Ghép	-13.4851
▁Khế	-13.4852
▁401	-13.4854
▁IQ	-13.4865
iger	-13.4876
mũi	-13.4881
lain	-13.4882
thánh	-13.4882
▁Cole	-13.4886
▁hun	-13.4888
1-2	-13.4889
▁Indo	-13.4892
bác	-13.4893
.060	-13.4895
▁150%	-13.4896
95%	-13.4898
Sông	-13.4899
bàn	-13.4901
sức	-13.4902
Song	-13.4909
8,9%	-13.4916
Ủ	-13.4917
▁Heavy	-13.4918
▁Lamborghini	-13.4918
▁Rakitic	-13.4918
▁Abbas	-13.4918
▁Ramsey	-13.4918
▁ngốc	-13.4918
▁Wanda	-13.4919
6/2016/	-13.4919
▁Thongl	-13.492
Point	-13.4921
yoon	-13.4921
▁Hớn	-13.4922
▁Tab	-13.4925
▁trát	-13.4926
▁tuyền	-13.4926
esh	-13.4927
▁SAB	-13.493
▁1-6	-13.4937
sim	-13.4937
▁hù	-13.4938
▁East	-13.4938
UV	-13.494
▁Gắn	-13.4947
▁HoREA	-13.4948
▁Stone	-13.4949
▁Jian	-13.4956
▁Giã	-13.4959
ATGT	-13.4966
Butter	-13.4966
mặt	-13.4966
▁6.200	-13.4969
Asia	-13.4976
▁Trào	-13.4984
CPI	-13.4985
Tâm	-13.499
▁57%	-13.4993
▁đờ	-13.4995
9,7%	-13.4995
▁Holding	-13.5
▁With	-13.5002
akharova	-13.5003
▁Algeria	-13.5003
▁Harvey	-13.5003
▁Ousman	-13.5003
▁Slovenia	-13.5003
▁giẫm	-13.5003
▁quậy	-13.5003
▁Angers	-13.5003
▁LGBT	-13.5003
▁fair	-13.5003
▁UNDP	-13.5003
Spider	-13.5003
▁CBRE	-13.5003
▁Mundo	-13.5003
SPORT	-13.5004
▁Đích	-13.5005
▁1,3%	-13.5005
6/2020/	-13.5007
▁Kwon	-13.501
▁Quao	-13.5014
▁12-14	-13.5018
▁10.2016	-13.5018
▁Tề	-13.5021
▁bích	-13.5025
▁VNR	-13.5025
▁phết	-13.5032
1.200	-13.5048
▁960	-13.5049
đạo	-13.5052
PCCC	-13.5053
▁XL	-13.5057
140	-13.5058
▁Hạo	-13.5068
khoá	-13.5073
▁Kill	-13.5085
▁38.000	-13.5087
▁Aleppo	-13.5088
▁Benitez	-13.5088
▁Nikki	-13.5088
▁OPPO	-13.5088
▁Pradesh	-13.5088
▁Rudiger	-13.5088
▁Stream	-13.5088
▁Suphanat	-13.5088
▁pizza	-13.5088
▁rươi	-13.5088
▁vằn	-13.5088
▁Eriksson	-13.5088
▁VINA	-13.5089
▁Boston	-13.5089
▁Intel	-13.5089
▁blog	-13.5089
▁SpO	-13.509
shire	-13.509
▁LĐO	-13.5092
▁26-28	-13.5093
▁Congo	-13.5093
▁52%	-13.5095
▁16-18	-13.5095
▁880	-13.5096
▁HDB	-13.5096
▁Fati	-13.5097
▁Quàng	-13.5098
▁tít	-13.5101
đó	-13.5107
.8.2018	-13.5107
▁0,25%	-13.5107
gli	-13.5113
▁82%	-13.5114
▁Stefan	-13.5116
rand	-13.5117
▁Tian	-13.5117
▁phui	-13.5127
▁Cò	-13.5129
,13%	-13.5129
▁Tem	-13.5133
Khoản	-13.5136
Phường	-13.5137
Gần	-13.5137
xóm	-13.5137
dài	-13.5137
tàu	-13.5137
HNX	-13.5139
stone	-13.514
▁42.000	-13.5142
▁096	-13.5143
▁54.000	-13.5145
9,25	-13.5146
view	-13.5149
▁7,0	-13.5149
▁Nie	-13.515
oku	-13.5154
▁Roy	-13.5156
▁Nhé	-13.5165
▁Rê	-13.5167
▁Hama	-13.5167
ssel	-13.5174
gladbach	-13.5174
naldum	-13.5174
▁0,05%	-13.5174
▁Didier	-13.5174
▁Fashion	-13.5174
▁Hựu	-13.5174
▁Lloyd	-13.5174
▁Oregon	-13.5174
▁Sumareh	-13.5174
▁Vancouver	-13.5174
▁đận	-13.5174
▁FOX	-13.5174
▁Charlie	-13.5174
▁(40-60	-13.5175
▁Jesse	-13.5175
▁kén	-13.5175
▁lỏi	-13.5175
▁nhút	-13.5175
▁Triền	-13.5176
▁ngớt	-13.5176
▁TNR	-13.5177
▁trồi	-13.5179
▁Đeo	-13.518
,45%	-13.518
▁ĐHCĐ	-13.5181
Work	-13.5183
▁Phàm	-13.5184
▁Huang	-13.5189
▁Lab	-13.5196
▁Nêu	-13.5197
dale	-13.5199
AE	-13.52
▁47%	-13.52
▁Bắp	-13.5201
▁Herve	-13.5203
chul	-13.5206
▁Latin	-13.5208
▁Die	-13.521
▁1953	-13.5217
Giả	-13.5222
▁Wong	-13.5223
▁Sub	-13.5224
Kinh	-13.5225
Chiều	-13.5225
game	-13.5225
Xã	-13.5226
6,4%	-13.5227
bữa	-13.5228
mark	-13.5228
pit	-13.5228
KCB	-13.5229
kêu	-13.5233
Vân	-13.5235
hel	-13.5235
râu	-13.5242
ING	-13.525
▁Moo	-13.5254
iki	-13.5255
▁Hei	-13.5258
▁Jeon	-13.5259
▁Future	-13.5259
able	-13.526
otta	-13.5261
▁Kushner	-13.5261
▁Mangkhut	-13.5261
▁Mueller	-13.5261
▁Quinvaxem	-13.5261
▁Sadeco	-13.5261
▁Santiago	-13.5261
▁Vietsovpetro	-13.5261
▁startup	-13.5261
▁nitrat	-13.5261
▁Spring	-13.5261
▁Kylie	-13.5264
▁Gianni	-13.5265
▁Care	-13.5271
llow	-13.5275
▁chông	-13.5275
▁Stan	-13.5278
▁Xoa	-13.5279
▁Henri	-13.5281
bí	-13.5286
fit	-13.5295
rex	-13.5305
hòa	-13.5311
Địa	-13.5312
bầu	-13.5312
dioxin	-13.5312
Inter	-13.5313
xử	-13.5314
▁Act	-13.5315
▁Xo	-13.5317
phục	-13.5318
9,6%	-13.532
▁88%	-13.5336
0,6%	-13.5337
▁Maya	-13.5342
SOHR	-13.5349
▁Corporation	-13.5349
▁CĐXDVN	-13.5349
▁HOCMAI	-13.5349
▁Mahathir	-13.5349
▁Minamino	-13.5349
▁chĩa	-13.5349
▁hashtag	-13.5349
▁Legend	-13.5349
First	-13.5349
▁Jeffrey	-13.5349
▁voọc	-13.5349
▁Xiển	-13.5349
▁Wilson	-13.535
▁Style	-13.535
▁Award	-13.535
▁Khuôn	-13.535
▁tươm	-13.535
▁Kiện	-13.5351
▁Nation	-13.5353
▁Photo	-13.5355
▁Miller	-13.5355
▁Lead	-13.5356
▁Santo	-13.5357
▁6.2.2022	-13.5359
▁Anti	-13.5367
▁Yuri	-13.5369
▁Má	-13.5371
▁Robin	-13.5374
nối	-13.538
ườn	-13.5381
Cov	-13.5381
▁7-5	-13.5381
space	-13.5382
▁85.000	-13.5383
▁4/5	-13.5388
Phone	-13.5395
▁Bot	-13.5397
Black	-13.5401
Hợp	-13.5401
điện	-13.5401
bre	-13.5402
chứng	-13.5402
diện	-13.5402
Gương	-13.5405
Bắt	-13.5412
oái	-13.5419
▁7-9	-13.5421
▁86%	-13.5421
lina	-13.5427
▁Tia	-13.5429
▁59/2015/	-13.5438
▁Bailly	-13.5438
▁Illinois	-13.5438
▁Khamenei	-13.5438
▁Quãng	-13.5438
▁Richarlison	-13.5438
▁Sultan	-13.5438
▁anthocyanin	-13.5438
▁ngậy	-13.5438
▁Methamphetamin	-13.5438
▁shophouse	-13.5438
graph	-13.5438
▁Week	-13.5438
▁giếm	-13.5438
▁Sachs	-13.5438
▁Bild	-13.5439
▁khoét	-13.544
▁MTTQVN	-13.544
▁DNNN	-13.544
▁hờn	-13.5441
▁tiệt	-13.5442
onia	-13.5444
▁Out	-13.5444
▁Chiếm	-13.5447
0-250	-13.545
3.500	-13.545
▁Chro	-13.5451
▁Beta	-13.5453
▁mạt	-13.5454
▁xít	-13.5457
key	-13.5457
▁Shan	-13.5458
ator	-13.5458
3,9%	-13.5469
▁hê	-13.5473
▁Gama	-13.5474
ball	-13.5475
2/2021/	-13.5483
▁Hunt	-13.5483
uddin	-13.5487
VKS	-13.549
mưa	-13.549
khẩu	-13.549
gửi	-13.5491
lúc	-13.5493
COM	-13.5496
tỷ	-13.5498
6,8%	-13.5506
▁Side	-13.5506
8,3%	-13.5523
▁Bật	-13.5527
▁Giusepp	-13.5527
▁VNDirect	-13.5527
▁Chiesa	-13.5527
▁Oliver	-13.5527
▁phượt	-13.5527
▁Praha	-13.5529
▁Norman	-13.553
▁PSV	-13.553
eung	-13.5534
▁Khalifa	-13.5534
▁CBNV	-13.5543
▁GR	-13.5546
▁Mori	-13.5547
▁Lấp	-13.5552
▁Andres	-13.5556
▁Abd	-13.5567
IMF	-13.558
Canada	-13.558
Vận	-13.558
xuống	-13.558
đưa	-13.558
quyền	-13.558
SGDĐT	-13.5581
Linh	-13.5581
ouma	-13.5581
Dâu	-13.5582
thảm	-13.5589
▁vest	-13.5593
-95%.	-13.5594
ful	-13.5594
▁Gray	-13.5595
▁Arch	-13.5596
▁Chả	-13.5598
▁Choe	-13.5606
2.2014	-13.5608
tina	-13.5608
▁lự	-13.5608
▁Gor	-13.5609
▁dance	-13.5613
▁Francis	-13.5617
▁Cooper	-13.5617
▁Nấu	-13.5617
▁Politico	-13.5617
▁Sisoulith	-13.5617
▁Volkswagen	-13.5617
▁nucleic	-13.5617
▁selfie	-13.5617
▁giễu	-13.5617
▁hực	-13.5617
▁gút	-13.5617
▁luống	-13.5618
▁ĐVCĐ	-13.5619
-160	-13.5619
▁căm	-13.5619
▁Colin	-13.562
TSKH	-13.5624
▁sải	-13.5626
▁Tiềm	-13.5626
▁Pak	-13.5628
▁CNY	-13.5629
▁Mập	-13.5633
▁8-11	-13.5634
▁VFC	-13.5636
▁200-300	-13.5636
▁gala	-13.5641
▁led	-13.5642
sik	-13.5646
▁mail	-13.5647
▁ATC	-13.5648
hầu	-13.5669
▁BVN	-13.5671
Đưa	-13.5671
Truyền	-13.5671
đào	-13.5671
LĐLĐVN	-13.5673
▁your	-13.5673
Phong	-13.5673
phân	-13.5675
▁Wen	-13.5676
▁SME	-13.5685
tốt	-13.5701
▁83%	-13.5705
▁ngùn	-13.5707
▁County	-13.5708
▁Houthi	-13.5708
▁Javier	-13.5708
▁Parkinson	-13.5708
▁SEVENTEEN	-13.5708
▁Stoltenberg	-13.5708
▁rựa	-13.5708
▁Woodward	-13.5708
▁Seattle	-13.5708
▁Grant	-13.5708
▁2015-2016	-13.5708
▁Khăm	-13.5708
evic	-13.5708
▁Wigo	-13.5709
▁Xưởng	-13.5709
▁Ailen	-13.5709
▁Châm	-13.571
▁Mesu	-13.5712
▁Conson	-13.5717
▁Phô	-13.5717
▁1.200.000	-13.5718
▁Khát	-13.572
▁Persi	-13.5721
3.240	-13.5733
▁Nikola	-13.5739
6.500	-13.5743
▁7-0	-13.5748
cheon	-13.575
house	-13.5754
▁016	-13.5761
tịt	-13.5762
▁87%	-13.5763
Hiến	-13.5763
trọng	-13.5763
SARS	-13.5763
hóa	-13.5766
Mức	-13.5772
▁Seon	-13.5774
You	-13.5774
▁táp	-13.5779
Cánh	-13.5785
,38%	-13.5792
erg	-13.5799
▁Kiển	-13.5799
▁Ortiz	-13.58
▁lutein	-13.58
▁Augsburg	-13.58
▁Bruce	-13.58
▁Empoli	-13.58
▁Financial	-13.58
▁Gaddafi	-13.58
▁Rihanna	-13.58
▁Schmeichel	-13.58
▁Shanghai	-13.58
▁Soyuz	-13.58
▁gẫy	-13.58
▁Serena	-13.58
▁Vinmart	-13.58
▁nẹp	-13.58
▁bugi	-13.58
Phù	-13.58
▁rít	-13.58
quý	-13.5801
▁mị	-13.5802
▁Rovers	-13.5803
▁Lens	-13.5803
▁móp	-13.5803
over	-13.5807
▁COP	-13.5814
▁SHINee	-13.5815
1,3%	-13.5822
▁Phích	-13.5823
▁91%	-13.5824
stream	-13.5855
Brazil	-13.5855
Trạm	-13.5856
Đời	-13.5857
Kỳ	-13.5857
xẻ	-13.5858
Iran	-13.5863
zio	-13.5867
andra	-13.5874
▁30-40	-13.5881
onda	-13.5883
Shi	-13.5886
▁caffein	-13.5891
▁Bolt	-13.5892
▁Diogo	-13.5892
▁Douban	-13.5892
▁Dynamo	-13.5892
▁Mohamad	-13.5892
▁Nhựa	-13.5892
▁Phuket	-13.5892
▁Slavia	-13.5892
▁Swansea	-13.5892
▁ethanol	-13.5892
▁Antony	-13.5892
▁điểu	-13.5892
▁ruốc	-13.5892
▁Metropolitano	-13.5892
▁Gabon	-13.5893
▁NHTM	-13.5893
▁mướt	-13.5893
▁nín	-13.5893
▁pate	-13.5893
▁xâu	-13.5893
▁sủi	-13.5894
▁Mép	-13.5896
▁Beau	-13.5896
▁31.12.2017	-13.59
Đa	-13.59
▁ngai	-13.5902
▁4.800	-13.5902
▁toái	-13.5903
▁Chó	-13.5903
▁chiêng	-13.5903
▁Khiển	-13.591
▁Wells	-13.5911
▁diva	-13.5911
▁LDL	-13.5913
▁SX	-13.5917
▁diếp	-13.5917
136	-13.5921
▁Fax	-13.5928
▁5.200	-13.5936
8,2%	-13.5936
Chạy	-13.5949
cậu	-13.5949
quần	-13.5949
phía	-13.5952
kal	-13.5959
6,40	-13.5972
▁Saif	-13.5981
▁Princes	-13.5983
▁nhún	-13.5984
▁Chilwell	-13.5986
▁Eurowindow	-13.5986
▁Gibraltar	-13.5986
▁Limited	-13.5986
▁Ultra	-13.5986
▁thẳm	-13.5986
▁Bavaria	-13.5986
▁Georgin	-13.5986
▁ẵm	-13.5986
▁GLC	-13.5986
ngốn	-13.5986
Odoi	-13.5986
▁Osama	-13.5986
▁Moody	-13.5986
▁Boxing	-13.5986
ONG	-13.5986
▁Walter	-13.5986
▁nẹt	-13.5986
▁Poker	-13.5986
▁Vidal	-13.5986
Mã	-13.5988
▁xỏ	-13.5988
484	-13.5989
▁lình	-13.5992
GDP	-13.5992
▁CĐGD	-13.5993
▁Hút	-13.5994
▁36,9	-13.5996
9,9%	-13.5997
▁OTT	-13.6004
RF	-13.6008
▁xíu	-13.601
vir	-13.6012
9,8%	-13.6024
huyết	-13.6041
tiến	-13.6043
▁Aqua	-13.6045
▁Kid	-13.6048
Phim	-13.6052
▁Seok	-13.6052
huy	-13.6054
▁SAT	-13.6057
Năng	-13.6059
made	-13.607
-120	-13.6072
▁gạc	-13.6077
▁2,0-4,0	-13.608
vezda	-13.608
▁Imperia	-13.608
▁Medlatec	-13.608
▁Mukesh	-13.608
▁Newsweek	-13.608
▁Yellen	-13.608
46/2018/	-13.608
▁hécta	-13.608
▁gỏi	-13.608
▁nực	-13.6081
▁Europea	-13.6081
▁Jake	-13.6082
5/2014/	-13.6083
▁gồ	-13.6083
1-3	-13.6083
▁Mạo	-13.6085
▁28/2015/	-13.6087
ộn	-13.6089
▁GMT	-13.609
.11.2014	-13.609
▁1.850	-13.609
EST	-13.6097
▁Gaga	-13.6101
888	-13.6102
5.000.000	-13.6105
alf	-13.6107
▁Abdel	-13.6109
6,1%	-13.6114
ướt	-13.612
▁yếm	-13.6121
▁seri	-13.6126
▁luy	-13.6127
80%	-13.6132
▁Của	-13.6133
▁Kao	-13.6134
2%),	-13.6135
miễn	-13.6139
CNCH	-13.6139
▁Hills	-13.6139
oka	-13.6139
Máy	-13.614
Vương	-13.6143
quay	-13.6144
Gái	-13.6144
Cụ	-13.6144
Sắc	-13.6145
▁1952	-13.6147
răng	-13.6151
36%	-13.6154
lv	-13.6175
▁Malta	-13.6175
▁Papua	-13.6175
▁Pixel	-13.6175
▁chửng	-13.6175
▁sần	-13.6175
▁Sparta	-13.6175
world	-13.6175
▁garage	-13.6175
▁nớt	-13.6176
▁lắt	-13.6176
▁Paolo	-13.6176
▁xèo	-13.6177
▁nick	-13.6177
▁nhóc	-13.6177
75-90	-13.6178
▁Trent	-13.6178
▁Goni	-13.6178
Tối	-13.6179
heed	-13.6179
▁Terry	-13.6187
▁tì	-13.6187
▁Guk	-13.6189
link	-13.6189
▁Ngưu	-13.6189
▁4.300	-13.6192
▁3.800	-13.6195
▁Xín	-13.62
▁mênh	-13.6206
mont	-13.6212
she	-13.6212
room	-13.6214
JO	-13.6214
▁Boun	-13.6216
▁(120	-13.6221
▁Conor	-13.6225
zzi	-13.6226
6,35	-13.6229
gặp	-13.6232
35.000	-13.6234
Nghe	-13.6235
SHB	-13.6237
tiếng	-13.6239
già	-13.624
dùng	-13.6247
ovsky	-13.6251
trở	-13.6254
▁Gum	-13.6256
▁IDC	-13.6263
hard	-13.6271
▁Adisak	-13.6271
▁Akihito	-13.6271
▁Huoai	-13.6271
▁Kawasaki	-13.6271
▁Lincoln	-13.6271
▁Odegaard	-13.6271
▁Ryabkov	-13.6271
▁bặm	-13.6271
▁nượp	-13.6271
▁Speed	-13.6271
louse	-13.6272
▁full	-13.6272
▁Lynk	-13.6272
▁Verona	-13.6272
plus	-13.6272
▁GDNN	-13.6272
▁uyển	-13.6274
▁Tiện	-13.6275
▁Tịch	-13.6275
gate	-13.6276
▁Kình	-13.6278
▁VJC	-13.6278
▁Lắc	-13.6281
▁Woods	-13.6283
▁Lùng	-13.6287
▁Guy	-13.629
▁khế	-13.6306
iểm	-13.6306
▁hởi	-13.6307
online	-13.6315
▁THE	-13.6318
06%	-13.6326
truyền	-13.6332
▁mili	-13.6332
dịch	-13.6333
SDF	-13.6334
bắn	-13.6335
0,8%	-13.6341
▁Chanel	-13.6348
cảm	-13.6351
PVC	-13.6363
▁Var	-13.6366
▁Hindu	-13.6368
▁Jessica	-13.6368
▁Stuttgart	-13.6368
▁giỡn	-13.6368
▁lycopene	-13.6368
▁VOA	-13.6368
▁hợt	-13.6368
▁Tembin	-13.6368
IATA	-13.6369
▁Mendes	-13.6369
▁Utah	-13.6369
▁Mako	-13.637
.02.2021	-13.6371
JC	-13.6372
▁Trỗi	-13.6373
▁gout	-13.6375
▁rêu	-13.6376
▁Lửa	-13.6376
Islam	-13.6377
▁HDV	-13.6379
tus	-13.638
▁13-15	-13.6382
▁1.7.2022	-13.6407
868	-13.6407
0054	-13.6412
kovic	-13.6415
put	-13.6415
,21%	-13.6424
Chào	-13.643
Agribank	-13.643
xấu	-13.643
CMND	-13.643
thuốc	-13.643
đẹp	-13.643
Trang	-13.6431
thí	-13.6431
phạt	-13.6431
Lữ	-13.6433
BĐS	-13.6434
Thổ	-13.6437
tuyến	-13.6438
▁KBS	-13.6443
Seo	-13.6451
850	-13.6452
vil	-13.6453
tour	-13.6457
23.220	-13.6461
▁cừ	-13.6465
.11.2020.	-13.6465
▁05/2015/	-13.6466
VBHN	-13.6466
JCPOA	-13.6466
agreb	-13.6466
▁Gnabry	-13.6466
▁Johor	-13.6466
▁Mabkhout	-13.6466
▁Stockholm	-13.6466
▁Sukhoi	-13.6466
oằn	-13.6467
▁óng	-13.6467
▁Amway	-13.6467
▁Kerch	-13.6467
▁Parma	-13.6467
▁sexy	-13.6467
▁săm	-13.6468
▁Victory	-13.6469
▁QBV	-13.6469
▁PCTN	-13.647
▁nhão	-13.6471
▁Mía	-13.6473
▁HPL	-13.6477
XXX	-13.6483
▁25.5.2022	-13.6483
mail	-13.6485
▁Bernardo	-13.6486
▁Aki	-13.649
fr	-13.6492
anto	-13.6493
▁7.200	-13.6497
Class	-13.6498
▁Nuti	-13.6501
Lago	-13.651
▁11.2016	-13.6511
▁Jam	-13.6511
▁1.10.2021	-13.6513
IPA	-13.6518
Nơi	-13.6529
BVĐK	-13.6529
đẩy	-13.6532
KKT	-13.6533
Mart	-13.6534
ista	-13.6534
Tương	-13.6541
▁Bernard	-13.6546
7,25	-13.6556
hiến	-13.6556
ais	-13.6561
NOAA	-13.6565
▁Azpilicueta	-13.6565
▁Girona	-13.6565
▁Hầm	-13.6565
▁MacKenzie	-13.6565
▁Osasuna	-13.6565
▁Philadelphia	-13.6565
▁Talent	-13.6565
▁Technology	-13.6565
▁giêng	-13.6565
▁Qasem	-13.6565
▁Sớm	-13.6565
▁Pearl	-13.6566
anic	-13.6566
▁Moses	-13.6566
▁chẻ	-13.6566
▁Carter	-13.6567
▁Cafe	-13.6568
buk	-13.6568
▁CSB	-13.6571
All	-13.6571
▁Mại	-13.6572
▁sạm	-13.6572
▁Buk	-13.6577
▁nghiến	-13.6577
▁chớ	-13.6577
6,5%	-13.6583
1/2020/	-13.6586
▁31.12.2018	-13.6594
Nghi	-13.6621
Lãnh	-13.6629
Ronaldo	-13.6629
sóng	-13.6629
kép	-13.663
▁Stefano	-13.6631
Hiệu	-13.6632
xác	-13.6632
nhờ	-13.6636
Gar	-13.664
113	-13.6643
▁nhũ	-13.6657
oda	-13.6662
▁Craig	-13.6665
▁Industries	-13.6665
▁Leganes	-13.6665
▁Lèng	-13.6665
▁Maharashtra	-13.6665
▁Monchengladbach	-13.6665
▁Nagelsmann	-13.6665
▁Tiktok	-13.6665
▁Toulouse	-13.6665
▁sững	-13.6665
▁England	-13.6665
▁team	-13.6665
▁Homs	-13.6666
▁EcoSport	-13.6666
▁Investment	-13.6666
▁167/2013/	-13.6666
▁Chưởng	-13.6666
▁nứa	-13.6666
▁Trữ	-13.6666
▁vồng	-13.6667
▁miếu	-13.6667
▁Asiad	-13.6669
▁Hansi	-13.667
oòng	-13.6672
kế	-13.6675
▁28/2021/	-13.6678
▁1.9.2021	-13.6678
say	-13.6679
▁3.300	-13.668
▁5.800	-13.6683
▁Bếp	-13.6687
cung	-13.6688
lev	-13.6688
▁1,12	-13.6689
▁Kobe	-13.6691
▁Melo	-13.6697
post	-13.6717
▁Amir	-13.6719
iệp	-13.6727
Bay	-13.6728
Hoạt	-13.673
Thuận	-13.673
dạy	-13.673
Ủy	-13.6731
bước	-13.6731
,47%	-13.6732
kỷ	-13.6732
Star	-13.6733
▁phuy	-13.6733
thất	-13.6738
▁Hana	-13.6745
▁Bolsonaro	-13.6766
▁Deluxe	-13.6766
▁Dusit	-13.6766
▁Foster	-13.6766
▁Fumio	-13.6766
▁Ghosn	-13.6766
▁Komuro	-13.6766
▁Liberec	-13.6766
▁Mallorca	-13.6766
▁Merseyside	-13.6766
▁Residence	-13.6766
▁Tanzania	-13.6766
▁Telegram	-13.6766
▁VTVCab	-13.6766
▁Wealth	-13.6766
▁biotin	-13.6766
▁blockchain	-13.6766
▁huân	-13.6766
▁nồm	-13.6766
▁(27.7.1947	-13.6767
▁Apollo	-13.6767
▁silicon	-13.6767
▁General	-13.6767
▁XAU	-13.6767
▁Murray	-13.6767
▁body	-13.6767
▁Alabama	-13.6767
▁hâu	-13.6767
▁Nuno	-13.6767
▁134/2015/	-13.6767
▁20-30%	-13.677
125	-13.6771
▁nái	-13.6772
▁19-21	-13.6774
126	-13.6774
▁13-14	-13.6775
▁ngải	-13.6775
▁Mân	-13.6778
▁Lả	-13.6789
▁Ward	-13.682
Nhờ	-13.6832
Huấn	-13.6832
Tiểu	-13.6832
Vietcombank	-13.6832
▁Saf	-13.6832
boo	-13.6833
đăng	-13.6834
Khách	-13.6835
chiêu	-13.6835
Rồng	-13.6836
giúp	-13.684
sạch	-13.684
đen	-13.684
7.600	-13.6841
nút	-13.6849
rel	-13.6865
▁nghê	-13.6868
▁Nagorno	-13.6869
▁LaLiga	-13.6869
▁Lụa	-13.6869
▁McConnell	-13.6869
▁Scholes	-13.6869
▁Xhaka	-13.6869
▁cật	-13.6869
▁testosterone	-13.6869
▁Bonucci	-13.6869
▁Celtic	-13.6869
▁oliu	-13.6869
▁Ismail	-13.6869
/2008/	-13.6869
▁Matteo	-13.6869
▁(50-60	-13.6869
▁Vinashin	-13.6869
Leroy	-13.6869
▁khiêng	-13.6869
▁gáo	-13.6869
▁nheo	-13.6869
▁thò	-13.687
▁Nakhon	-13.687
▁Moya	-13.687
▁Jill	-13.6871
▁Stefanos	-13.6871
4/2014/	-13.6871
0,1%	-13.6879
2/2017/	-13.6889
aven	-13.6904
Canel	-13.6908
1969	-13.6909
▁1949	-13.6912
▁1947	-13.6913
ander	-13.6915
Gửi	-13.6935
Túi	-13.6935
Chuyển	-13.6935
Vậy	-13.6935
tầng	-13.6935
quyết	-13.6935
khỉ	-13.6935
Real	-13.6936
[...]
